<unk>	0
<s>	0
</s>	0
]	-2.90478
▁[	-2.90553
T	-2.90573
E	-2.90575
O	-2.90575
▁i	-3.7343
▁the	-3.81765
▁to	-4.08546
▁it	-4.18252
▁you	-4.31987
▁a	-4.41774
__	-4.52289
▁__	-4.53209
▁is	-4.60809
▁and	-4.62187
▁that	-4.77026
▁in	-4.98419
t	-5.02729
▁do	-5.06241
number	-5.08577
-	-5.16981
▁have	-5.22605
▁n	-5.27349
▁for	-5.27458
'	-5.2965
▁on	-5.29967
▁of	-5.32514
s	-5.35122
▁s	-5.38847
▁but	-5.4043
▁what	-5.40647
▁not	-5.42526
▁can	-5.4843
▁with	-5.52379
▁my	-5.55158
▁	-5.56446
▁if	-5.62343
▁...	-5.68064
▁be	-5.74155
path	-5.74843
▁just	-5.75591
▁ubuntu	-5.75816
▁-	-5.81118
▁or	-5.81336
▁so	-5.81483
▁are	-5.843
▁your	-5.86453
▁no	-5.87315
▁this	-5.90975
▁there	-5.93105
▁how	-5.94847
▁(	-5.95407
▁me	-5.99312
▁install	-6.00071
/	-6.02239
▁)	-6.02354
▁use	-6.04439
▁then	-6.06183
▁:	-6.08411
)	-6.1007
▁from	-6.10923
▁does	-6.12411
▁get	-6.14126
▁as	-6.1434
▁m	-6.16687
▁..	-6.16785
▁all	-6.27065
▁try	-6.27088
▁know	-6.28189
▁did	-6.29119
▁like	-6.30838
▁will	-6.33856
▁one	-6.34004
▁when	-6.35532
▁an	-6.35586
▁need	-6.35602
▁see	-6.35827
▁was	-6.38022
d	-6.3946
▁ok	-6.40654
▁sudo	-6.40919
▁now	-6.43345
▁up	-6.4375
url	-6.4393
▁at	-6.44299
▁should	-6.48299
ing	-6.49501
▁yes	-6.49514
▁file	-6.49847
▁any	-6.50925
▁work	-6.52836
▁want	-6.54605
▁using	-6.57044
▁would	-6.60453
▁about	-6.63051
▁its	-6.65548
▁some	-6.70585
▁well	-6.71878
▁help	-6.72024
▁windows	-6.72946
▁installed	-6.73147
▁run	-6.73732
▁think	-6.76168
▁out	-6.77308
▁problem	-6.80392
▁only	-6.80838
▁linux	-6.83301
ed	-6.83896
▁sure	-6.87354
▁right	-6.87616
▁which	-6.88727
▁has	-6.88895
▁apt	-6.90204
▁make	-6.90539
▁am	-6.91733
▁system	-6.92483
▁could	-6.93834
▁they	-6.96541
▁why	-6.96844
▁re	-6.97423
▁boot	-6.98598
▁command	-7.00273
▁something	-7.00294
▁by	-7.00469
▁cd	-7.04883
▁other	-7.05645
▁here	-7.0625
▁way	-7.06648
p	-7.07101
▁ve	-7.08477
▁ca	-7.08813
▁still	-7.08981
_	-7.10244
▁find	-7.12482
▁d	-7.12848
get	-7.13329
▁x	-7.1341
▁also	-7.1356
▁error	-7.13572
▁got	-7.14323
▁same	-7.14615
.	-7.15494
▁trying	-7.16214
▁running	-7.16563
▁server	-7.17445
▁thanks	-7.17742
▁where	-7.18045
▁go	-7.18558
▁ll	-7.18737
▁them	-7.19036
▁tried	-7.20709
▁more	-7.21977
▁time	-7.22356
▁anyone	-7.22363
▁partition	-7.23349
▁files	-7.24218
▁good	-7.24364
▁new	-7.26045
▁card	-7.26766
▁package	-7.2728
2	-7.27874
▁drive	-7.28208
▁gnome	-7.29032
▁check	-7.29234
▁after	-7.2952
▁dont	-7.30139
▁set	-7.30409
▁please	-7.31074
▁yeah	-7.31425
▁mean	-7.32386
▁im	-7.33639
▁again	-7.34346
▁really	-7.34989
▁driver	-7.35621
▁terminal	-7.35779
▁kernel	-7.35834
▁into	-7.35843
▁had	-7.36986
r	-7.36998
▁working	-7.37841
▁first	-7.38275
▁--	-7.38783
▁works	-7.38956
▁back	-7.40076
▁root	-7.40309
▁grub	-7.4033
e	-7.41079
l	-7.41595
▁too	-7.417
x	-7.41725
▁anything	-7.41944
▁tell	-7.4278
▁open	-7.4309
▁because	-7.43811
▁look	-7.44635
▁version	-7.44933
▁type	-7.46683
▁thing	-7.47107
▁line	-7.47553
▁even	-7.47972
▁used	-7.48122
▁user	-7.49399
▁network	-7.49965
▁mount	-7.51053
▁sorry	-7.51904
3	-7.53048
▁change	-7.53435
ly	-7.53578
▁desktop	-7.5379
▁says	-7.53853
▁before	-7.55489
▁might	-7.56568
▁we	-7.56685
a	-7.56932
▁nvidia	-7.57447
0	-7.57619
▁though	-7.58407
▁start	-7.59278
i	-7.59617
▁u	-7.59678
1	-7.6003
▁add	-7.60031
▁read	-7.62463
▁usb	-7.62655
▁screen	-7.62732
(	-7.63221
▁drivers	-7.63614
f	-7.64725
▁fine	-7.65348
▁than	-7.65882
▁hi	-7.66243
▁default	-7.66838
▁maybe	-7.67359
▁update	-7.67399
▁much	-7.67969
▁sound	-7.68045
▁give	-7.68143
▁....	-7.68868
▁say	-7.7025
▁stuff	-7.7055
▁conf	-7.71514
▁computer	-7.71792
▁question	-7.71892
y	-7.71955
▁|	-7.72654
▁oh	-7.72754
▁been	-7.73141
o	-7.7325
▁list	-7.73421
c	-7.73604
▁nothing	-7.73949
▁already	-7.73996
▁may	-7.74028
▁output	-7.75621
▁#	-7.76028
▁machine	-7.78395
▁very	-7.79189
▁going	-7.79388
▁put	-7.79688
m	-7.79754
▁*	-7.80132
g	-7.80472
▁let	-7.80515
▁remove	-7.80516
▁another	-7.80877
▁packages	-7.83075
er	-7.83155
▁;	-7.83914
▁thats	-7.84174
n	-7.84502
▁he	-7.84832
▁things	-7.85776
▁done	-7.86348
▁disk	-7.86938
▁probably	-7.87156
▁laptop	-7.87282
▁said	-7.87736
▁without	-7.87835
▁found	-7.88289
▁able	-7.88836
▁those	-7.89186
▁name	-7.89319
▁device	-7.89731
▁issue	-7.90212
▁seems	-7.90228
▁someone	-7.91237
▁never	-7.91291
▁lol	-7.91472
▁fix	-7.9166
▁wireless	-7.91785
▁directory	-7.92525
▁off	-7.92666
▁idea	-7.93115
▁support	-7.93201
▁different	-7.93613
▁actually	-7.94429
▁access	-7.9612
*	-7.96276
▁live	-7.96314
▁pastebin	-7.96353
▁installing	-7.96725
▁under	-7.96885
▁wo	-7.97007
▁better	-7.97372
▁bit	-7.9862
▁firefox	-7.98954
▁log	-7.99254
▁ask	-7.99312
▁getting	-7.9939
▁doing	-7.99985
▁option	-8.00089
▁menu	-8.00113
▁=	-8.00389
▁everything	-8.0086
▁hard	-8.00892
ubuntu	-8.00904
▁having	-8.01173
▁ip	-8.0127
▁program	-8.019
▁wrong	-8.01994
▁manager	-8.02885
▁video	-8.02953
▁over	-8.03015
▁both	-8.03785
▁xorg	-8.04414
▁since	-8.04573
▁cant	-8.05526
▁show	-8.05844
▁ssh	-8.06119
▁guess	-8.06776
▁okay	-8.07266
▁k	-8.07473
k	-8.0755
+	-8.07876
▁box	-8.07926
▁c	-8.08346
▁old	-8.08635
▁through	-8.08986
▁link	-8.10676
▁etc	-8.10876
▁software	-8.11133
4	-8.11327
▁download	-8.11385
▁people	-8.12145
▁folder	-8.12165
▁click	-8.12344
▁take	-8.13606
▁connect	-8.13937
b	-8.14613
▁two	-8.14822
▁upgrade	-8.15093
▁problems	-8.15306
▁source	-8.15557
▁password	-8.15842
▁e	-8.16941
▁while	-8.17266
▁else	-8.17538
▁looking	-8.18905
▁dpkg	-8.18905
▁hardware	-8.20395
▁most	-8.2073
▁point	-8.21984
▁script	-8.22036
▁paste	-8.22185
▁last	-8.22247
▁down	-8.22321
▁router	-8.22549
▁channel	-8.23075
▁hey	-8.23282
▁gui	-8.23777
es	-8.23819
▁flash	-8.24461
▁bad	-8.24843
▁synaptic	-8.24987
▁were	-8.25457
▁reboot	-8.25549
▁hmm	-8.26621
▁os	-8.26745
▁settings	-8.26962
▁either	-8.2741
▁correct	-8.27822
▁home	-8.27857
▁ah	-8.28227
5	-8.28308
▁being	-8.28958
▁window	-8.29284
▁worked	-8.2935
▁man	-8.29839
▁hello	-8.29896
▁search	-8.29984
▁always	-8.3042
▁such	-8.30458
▁setup	-8.30513
▁instead	-8.30889
=	-8.31045
▁copy	-8.31154
▁login	-8.31168
▁w	-8.31271
▁connection	-8.31411
▁restart	-8.31451
▁looks	-8.32397
h	-8.32465
▁lot	-8.32526
▁play	-8.33185
▁doesnt	-8.33378
▁via	-8.33403
▁yet	-8.34263
▁few	-8.34836
▁wine	-8.34893
▁config	-8.35053
▁pc	-8.35115
▁kde	-8.36343
▁internet	-8.36389
▁mode	-8.364
▁data	-8.36471
in	-8.36877
▁edit	-8.37833
▁message	-8.3805
▁eth	-8.38107
▁possible	-8.38265
▁ext	-8.38467
▁keep	-8.38696
▁grep	-8.38799
▁many	-8.39558
▁iso	-8.39832
▁create	-8.39901
▁cannot	-8.40206
▁port	-8.40322
v	-8.40433
▁exactly	-8.40753
▁??	-8.40958
▁free	-8.41385
▁key	-8.41792
▁thought	-8.42231
▁ntfs	-8.42993
▁deb	-8.43388
▁hd	-8.43685
▁ati	-8.43758
w	-8.44203
▁errors	-8.44252
bit	-8.44293
▁pretty	-8.44483
▁xp	-8.44909
▁google	-8.45348
▁space	-8.45582
▁page	-8.46131
▁guys	-8.46226
▁every	-8.4663
▁ram	-8.46771
▁part	-8.46838
▁reinstall	-8.46871
▁compiz	-8.47192
▁these	-8.47225
▁f	-8.47455
▁debian	-8.4762
▁long	-8.48304
▁anyway	-8.48405
▁understand	-8.48462
▁options	-8.48941
▁partitions	-8.49544
▁who	-8.49549
gb	-8.49558
▁best	-8.49921
▁b	-8.5009
▁around	-8.50326
▁bug	-8.51231
▁reason	-8.52331
▁once	-8.52878
▁shows	-8.52977
▁write	-8.53
▁info	-8.53672
▁seem	-8.53917
▁monitor	-8.5453
▁wait	-8.55281
▁app	-8.55457
▁installation	-8.56818
▁java	-8.56864
▁text	-8.56955
▁test	-8.57435
▁load	-8.5771
▁->	-8.57973
▁nice	-8.58106
▁g	-8.58219
com	-8.58534
▁their	-8.58655
▁remember	-8.59072
▁users	-8.60223
▁little	-8.60265
▁address	-8.60901
▁t	-8.60939
▁:-	-8.61741
▁sounds	-8.62525
▁dvd	-8.62836
u	-8.63091
▁come	-8.63104
▁swap	-8.63254
▁available	-8.63326
▁issues	-8.63493
▁client	-8.64062
▁next	-8.64392
▁easy	-8.64537
▁kind	-8.64932
▁3	-8.6537
▁own	-8.65403
▁audio	-8.65412
▁means	-8.65488
▁module	-8.65493
▁second	-8.65697
▁un	-8.66086
▁configure	-8.66446
▁case	-8.66687
▁made	-8.67317
▁web	-8.67762
able	-8.67846
▁manually	-8.67992
▁happens	-8.68023
▁enable	-8.68434
▁called	-8.68618
▁end	-8.6871
▁answer	-8.69244
▁nope	-8.69767
▁cause	-8.70059
▁build	-8.70339
▁mounted	-8.70403
▁normal	-8.70448
▁whats	-8.7106
▁ls	-8.71184
▁stop	-8.71285
▁uses	-8.71382
▁thank	-8.71494
▁ctrl	-8.71672
▁intel	-8.71702
re	-8.71722
▁alsa	-8.72092
▁must	-8.7214
▁enough	-8.72206
▁great	-8.72217
▁whatever	-8.72442
▁o	-8.72842
▁far	-8.72901
▁bios	-8.73746
or	-8.7394
▁mouse	-8.74508
▁apps	-8.74521
▁cool	-8.74845
▁wont	-8.75303
▁repos	-8.75327
al	-8.76064
▁r	-8.7613
▁setting	-8.76832
▁full	-8.7714
▁enter	-8.77497
▁display	-8.77775
▁image	-8.77843
▁programs	-8.77989
▁delete	-8.78049
▁sources	-8.7828
▁select	-8.78533
▁site	-8.78558
▁least	-8.78671
▁process	-8.79053
▁didnt	-8.79071
7	-8.79337
▁console	-8.79526
z	-8.80485
▁saying	-8.80587
▁however	-8.80648
▁livecd	-8.80902
▁told	-8.80945
▁graphics	-8.80984
▁local	-8.81582
▁ideas	-8.81684
▁p	-8.81801
▁switch	-8.81908
▁installer	-8.82038
▁+	-8.82916
▁wifi	-8.83016
▁place	-8.83429
▁interface	-8.83512
▁slow	-8.83834
▁choose	-8.84234
▁cpu	-8.84492
▁gives	-8.84681
▁shell	-8.84804
▁us	-8.84854
▁usually	-8.85002
▁format	-8.85174
▁believe	-8.85189
▁ever	-8.85603
▁changed	-8.85653
▁ive	-8.86002
6	-8.86005
▁permissions	-8.86013
▁yep	-8.8612
desktop	-8.86137
▁makes	-8.86499
▁samba	-8.86833
▁lines	-8.87345
▁whole	-8.87436
▁unless	-8.87644
▁gdm	-8.87685
▁needs	-8.8769
▁compile	-8.87867
▁times	-8.87898
▁nautilus	-8.88025
▁asking	-8.88093
▁post	-8.88124
▁quite	-8.88452
▁ping	-8.88684
▁depends	-8.88906
▁each	-8.89025
▁raid	-8.89587
▁top	-8.89614
▁failed	-8.89707
▁win	-8.89769
▁example	-8.89774
▁apache	-8.89987
▁connected	-8.90528
▁auto	-8.90855
▁resolution	-8.9105
▁power	-8.91312
▁move	-8.91316
▁real	-8.91545
▁hdd	-8.91554
▁between	-8.91803
▁perhaps	-8.92187
▁2	-8.92244
>	-8.9226
▁dual	-8.92625
mb	-8.92714
▁backup	-8.93038
▁commands	-8.93072
▁enabled	-8.93097
▁drives	-8.93113
▁sec	-8.93136
▁save	-8.93516
▁weird	-8.9416
▁figure	-8.94269
▁specific	-8.94419
▁mac	-8.94662
▁tab	-8.95448
▁gparted	-8.95614
▁release	-8.96166
▁external	-8.96342
▁information	-8.96409
▁simple	-8.96487
▁code	-8.96525
▁main	-8.96615
▁alt	-8.96904
▁filesystem	-8.96956
▁mp	-8.97055
▁supported	-8.97057
32	-8.9707
▁booting	-8.97138
▁dapper	-8.97146
▁goes	-8.97232
▁gave	-8.97236
▁keyboard	-8.97485
▁hit	-8.97523
▁yea	-8.97845
▁ago	-8.98144
▁mplayer	-8.98346
▁talking	-8.98372
▁comes	-8.9861
▁press	-8.98774
▁mine	-8.98799
▁application	-8.99473
▁big	-8.99478
▁lspci	-8.99844
▁applications	-8.99938
▁latest	-8.99967
▁irc	-9.00012
▁ran	-9.00066
▁current	-9.00442
it	-9.00708
▁downloaded	-9.00999
▁size	-9.01213
▁rather	-9.01332
▁needed	-9.02393
▁left	-9.03069
server	-9.03093
▁aptitude	-9.03116
▁disable	-9.03297
▁fstab	-9.03353
▁configuration	-9.03424
▁dhcp	-9.03502
▁lib	-9.03568
▁missing	-9.0358
▁group	-9.03907
▁tar	-9.04023
▁dmesg	-9.04344
▁broken	-9.0448
▁share	-9.04747
▁&	-9.04756
on	-9.04757
▁player	-9.05138
▁seen	-9.05689
▁icon	-9.05834
▁suggest	-9.05866
▁ya	-9.06027
▁close	-9.061
▁updates	-9.06369
▁memory	-9.06714
▁started	-9.06723
▁&&	-9.0683
▁breezy	-9.06881
j	-9.07152
▁wanted	-9.07152
▁tool	-9.0738
▁php	-9.07439
64	-9.07495
▁ones	-9.07611
▁virtual	-9.07638
:	-9.07715
▁browser	-9.07946
▁luck	-9.08231
▁control	-9.08543
▁clean	-9.08673
▁ill	-9.08819
▁until	-9.0906
▁hoary	-9.09117
▁sort	-9.09197
▁less	-9.09474
▁went	-9.09679
▁kubuntu	-9.09732
▁sda	-9.09851
▁panel	-9.09927
▁properly	-9.10318
▁dir	-9.10472
▁bash	-9.10487
▁asked	-9.10493
▁".	-9.11089
to	-9.11102
▁checked	-9.11134
▁button	-9.11139
▁matter	-9.11206
▁automatically	-9.11597
▁sh	-9.11954
▁ndiswrapper	-9.11982
us	-9.12399
▁course	-9.12625
▁net	-9.12861
▁fdisk	-9.13059
▁added	-9.13397
▁dns	-9.1412
▁1	-9.1412
▁session	-9.142
▁de	-9.14489
▁host	-9.14554
▁non	-9.14559
▁distro	-9.14595
▁volume	-9.14627
▁ifconfig	-9.14663
▁repo	-9.14853
▁kill	-9.14929
▁turn	-9.14984
▁account	-9.1508
▁isnt	-9.15092
▁modem	-9.15334
▁changes	-9.15527
▁easier	-9.15768
▁remote	-9.15796
▁sometimes	-9.16364
▁ps	-9.16478
▁explain	-9.16495
▁trouble	-9.16891
▁heh	-9.1807
▁removed	-9.18123
▁somewhere	-9.18144
▁stick	-9.1835
▁plugin	-9.18419
▁following	-9.18512
▁his	-9.18676
▁cat	-9.18781
is	-9.18831
▁making	-9.18969
th	-9.19157
▁true	-9.19254
▁hold	-9.19448
▁media	-9.1961
▁solution	-9.19793
▁vlc	-9.20228
▁recovery	-9.20557
▁basically	-9.20573
▁runs	-9.20611
▁currently	-9.20679
▁gets	-9.20728
▁allow	-9.20833
▁strange	-9.20937
▁days	-9.20955
en	-9.2152
ion	-9.21592
▁follow	-9.21657
▁???	-9.21665
▁instructions	-9.21702
▁exist	-9.2174
▁guide	-9.21761
▁correctly	-9.22007
▁btw	-9.2202
▁amd	-9.22156
▁reading	-9.22331
▁questions	-9.224
▁speed	-9.22435
▁itself	-9.22477
▁mail	-9.2251
▁burn	-9.22624
▁hardy	-9.22765
▁v	-9.22856
▁anybody	-9.23236
▁fixed	-9.23277
▁path	-9.23358
▁en	-9.23439
▁send	-9.23455
▁myself	-9.23622
alt	-9.23697
▁restricted	-9.24
▁gedit	-9.2438
▁others	-9.24396
▁wlan	-9.24466
manager	-9.24703
▁xserver	-9.24904
▁mysql	-9.25034
▁alright	-9.25098
▁admin	-9.25297
▁happen	-9.25981
▁likely	-9.25995
▁recommend	-9.26809
▁"?	-9.26814
▁difference	-9.27262
▁firewall	-9.27264
▁ftp	-9.27432
▁prompt	-9.27456
linux	-9.27531
▁mind	-9.27551
▁moment	-9.27555
▁printer	-9.27684
▁day	-9.27692
->	-9.27791
▁based	-9.27877
▁fresh	-9.28039
▁replace	-9.28118
▁starting	-9.28248
▁devices	-9.28338
▁hope	-9.28489
▁modprobe	-9.2854
▁away	-9.28563
▁lost	-9.28648
▁step	-9.28801
▁listed	-9.28841
▁thinking	-9.28864
▁security	-9.29519
▁service	-9.29817
▁similar	-9.29945
le	-9.30055
▁years	-9.3016
▁repositories	-9.30202
▁chmod	-9.30602
▁meant	-9.30694
▁black	-9.30723
▁website	-9.30747
▁startup	-9.31351
▁everyone	-9.31363
▁loaded	-9.31381
▁64	-9.31692
▁edgy	-9.31868
▁anymore	-9.31913
8	-9.32043
▁repository	-9.32392
▁gb	-9.32461
▁tools	-9.3266
▁uninstall	-9.3275
▁entry	-9.32875
dev	-9.32997
▁universe	-9.33004
▁cards	-9.33185
▁vista	-9.33228
▁plug	-9.33308
▁learn	-9.33406
▁dev	-9.33441
▁odd	-9.33578
name	-9.33719
▁clear	-9.33867
▁standard	-9.3404
▁cable	-9.34092
▁except	-9.34191
▁totem	-9.34645
▁later	-9.34692
▁music	-9.34961
▁su	-9.35018
▁knows	-9.35227
▁minutes	-9.35268
▁created	-9.35277
▁wiki	-9.35295
no	-9.35364
▁.....	-9.35412
▁unity	-9.35419
▁modules	-9.35508
▁model	-9.35566
▁username	-9.36068
▁single	-9.36092
▁pre	-9.36178
▁xubuntu	-9.36224
▁mess	-9.36602
▁ethernet	-9.36608
▁url	-9.3671
ip	-9.36767
▁vnc	-9.36823
st	-9.37264
▁messages	-9.37315
▁inside	-9.37425
▁supposed	-9.37468
▁controller	-9.3751
▁during	-9.37804
▁preferences	-9.37836
▁order	-9.3789
▁simply	-9.3829
▁sense	-9.38366
▁fat	-9.38897
cache	-9.39007
▁completely	-9.39187
an	-9.3932
install	-9.39573
▁vmware	-9.396
▁leave	-9.39637
▁experience	-9.39659
▁happened	-9.39719
▁heard	-9.39942
▁updated	-9.40122
▁theme	-9.40212
▁none	-9.40232
▁appear	-9.40379
▁him	-9.40453
▁l	-9.40486
▁force	-9.4068
▁games	-9.40812
▁came	-9.40869
▁www	-9.40903
▁_	-9.41104
▁game	-9.41208
▁wondering	-9.41256
▁gonna	-9.41623
▁pro	-9.41675
▁fast	-9.41725
▁feel	-9.41941
▁feisty	-9.4233
▁safe	-9.42391
▁assume	-9.42473
▁side	-9.42734
▁section	-9.43094
org	-9.43106
▁bar	-9.43169
▁several	-9.43245
▁small	-9.43342
▁fglrx	-9.43833
▁loading	-9.43953
▁lan	-9.44185
▁xfce	-9.44209
▁dunno	-9.44413
▁private	-9.44513
un	-9.4452
▁md	-9.44953
▁permission	-9.45189
ation	-9.4532
▁com	-9.45328
▁ppa	-9.45341
▁changing	-9.46082
▁stable	-9.46102
9	-9.46111
▁quick	-9.46318
▁language	-9.46413
config	-9.46592
▁gtk	-9.46762
▁normally	-9.46823
▁built	-9.47078
▁care	-9.47101
▁exact	-9.47231
▁cli	-9.47256
nt	-9.47654
▁takes	-9.47705
▁servers	-9.47894
▁blank	-9.48046
▁tells	-9.48182
net	-9.48257
ch	-9.48339
▁hear	-9.48527
ur	-9.48706
▁4	-9.48788
▁unable	-9.4881
▁fails	-9.48905
▁gutsy	-9.48914
▁configured	-9.48923
▁today	-9.49257
▁machines	-9.49348
▁wow	-9.49709
se	-9.49988
▁lst	-9.50047
▁fact	-9.50233
▁playing	-9.50725
▁lets	-9.50726
▁sun	-9.5082
reconfigure	-9.51536
▁theres	-9.51698
▁input	-9.51715
file	-9.51759
▁yourself	-9.51853
ent	-9.5202
▁versions	-9.52394
▁faster	-9.52405
▁related	-9.52438
up	-9.52498
▁almost	-9.52955
▁dd	-9.5304
▁comp	-9.5305
▁h	-9.53151
▁starts	-9.53218
▁yup	-9.53234
▁hand	-9.53541
▁rm	-9.536
▁pci	-9.53769
▁earlier	-9.53777
▁directly	-9.53778
as	-9.53814
▁y	-9.53953
ar	-9.54039
▁disc	-9.54305
▁radeon	-9.54323
▁pm	-9.54773
▁dist	-9.54834
▁stuck	-9.54865
▁hours	-9.54868
▁python	-9.54868
▁manual	-9.54878
▁editor	-9.55118
el	-9.55164
ic	-9.55208
▁static	-9.55296
de	-9.55323
▁upgraded	-9.55403
▁chroot	-9.55582
▁0	-9.55743
▁view	-9.55761
▁checking	-9.56343
▁empty	-9.56362
▁complete	-9.56417
▁purge	-9.56546
43	-9.56624
▁vga	-9.56956
os	-9.57001
nd	-9.57089
▁although	-9.57104
▁core	-9.57247
11	-9.57248
▁alternate	-9.57254
▁chipset	-9.57465
▁100	-9.57634
me	-9.58097
▁mbr	-9.58107
q	-9.58132
▁dell	-9.58132
fs	-9.58228
▁couple	-9.58353
▁looked	-9.58455
|	-9.58552
▁proper	-9.58554
▁gone	-9.58575
▁xchat	-9.58619
▁saw	-9.58633
▁systems	-9.58879
▁hehe	-9.59067
▁computers	-9.59081
▁keys	-9.59229
▁call	-9.59261
▁thx	-9.59386
▁hm	-9.59534
▁showing	-9.59603
▁love	-9.5982
ive	-9.59821
id	-9.59839
ie	-9.59966
▁extra	-9.6027
▁folders	-9.60356
▁virtualbox	-9.60359
la	-9.60633
▁fsck	-9.60676
▁older	-9.60924
▁certain	-9.61363
▁mozilla	-9.61394
▁lots	-9.61557
▁sata	-9.61575
▁bin	-9.61823
im	-9.61956
▁effects	-9.62428
▁pass	-9.62461
▁internal	-9.62552
▁binary	-9.62655
upgrade	-9.627
▁actual	-9.62903
▁above	-9.62984
▁tho	-9.63046
▁bottom	-9.63248
▁per	-9.6328
▁stupid	-9.63512
▁typing	-9.64244
▁gksudo	-9.64528
▁otherwise	-9.64574
▁id	-9.64796
▁kinda	-9.64804
▁disabled	-9.64852
▁execute	-9.64979
▁wish	-9.65232
▁adding	-9.6526
xorg	-9.65314
▁result	-9.65394
▁multiple	-9.65552
86	-9.65602
▁ff	-9.65804
ol	-9.66023
▁ide	-9.6623
▁report	-9.66369
▁vm	-9.66384
▁prob	-9.66404
▁hang	-9.66419
ity	-9.66541
sh	-9.66613
et	-9.66772
▁iptables	-9.66842
▁longer	-9.67024
▁32	-9.67057
▁useful	-9.67098
▁logs	-9.67124
▁worth	-9.67266
ro	-9.67471
▁interesting	-9.67471
▁environment	-9.67475
386	-9.67662
▁print	-9.67684
▁bot	-9.67736
▁appears	-9.67774
▁haha	-9.67803
all	-9.6828
▁direct	-9.68328
▁forums	-9.68618
ter	-9.68626
▁ports	-9.68808
▁downloading	-9.68859
▁entire	-9.68915
▁cdrom	-9.68975
▁important	-9.69042
▁booted	-9.6953
▁rest	-9.6956
▁friend	-9.6975
▁online	-9.69799
▁special	-9.69917
;-)	-9.70133
ting	-9.70141
▁karmic	-9.70376
▁break	-9.70437
▁removing	-9.70437
▁prefer	-9.70522
▁j	-9.70671
▁reset	-9.70707
▁echo	-9.70894
▁wanna	-9.70911
▁ur	-9.70967
▁hmmm	-9.71101
▁soon	-9.71113
▁past	-9.71254
▁bunch	-9.71356
▁keeps	-9.71518
▁cp	-9.71645
▁touch	-9.71761
▁giving	-9.72002
mp	-9.7229
▁scan	-9.72346
▁logged	-9.72357
▁low	-9.72509
▁solve	-9.7261
▁telling	-9.7263
▁ahh	-9.72654
▁watch	-9.72663
ty	-9.72746
▁mounting	-9.72747
▁custom	-9.72778
▁results	-9.72877
▁resize	-9.72897
▁wonder	-9.73001
▁hda	-9.73215
▁double	-9.73216
▁wubi	-9.73271
▁somehow	-9.73316
▁messed	-9.73352
▁newer	-9.73396
▁general	-9.7351
▁dependencies	-9.73819
▁seconds	-9.73987
▁crap	-9.74237
ers	-9.74271
▁due	-9.74522
▁regular	-9.74669
▁links	-9.74673
▁lucid	-9.74682
▁word	-9.74789
il	-9.7488
▁wired	-9.74903
generic	-9.75156
▁tv	-9.7526
▁rid	-9.75281
▁plugged	-9.75319
rd	-9.75391
▁apparently	-9.75412
▁suppose	-9.75467
▁seeing	-9.75554
▁jaunty	-9.7582
▁separate	-9.75923
▁dude	-9.76439
▁gentoo	-9.76512
▁netbook	-9.76876
▁launch	-9.76987
▁!!	-9.7705
▁easily	-9.77084
▁particular	-9.77271
▁route	-9.77529
▁compiling	-9.77709
▁yesterday	-9.77747
▁forgot	-9.77882
▁iwconfig	-9.77938
▁onto	-9.77954
▁graphical	-9.78268
▁wants	-9.78335
▁chat	-9.78354
at	-9.7836
▁whether	-9.78436
▁skype	-9.78551
▁chance	-9.78575
▁basic	-9.78639
▁ha	-9.78724
▁networking	-9.78869
▁mb	-9.79025
▁within	-9.79083
ma	-9.79288
▁splash	-9.79339
▁talk	-9.79346
▁damn	-9.79481
▁restore	-9.79481
10	-9.79579
▁large	-9.79987
▁shared	-9.80084
▁deleted	-9.80094
▁assuming	-9.80239
▁date	-9.80263
man	-9.80356
▁gateway	-9.8061
▁familiar	-9.80669
▁front	-9.80824
▁gz	-9.8088
▁upgrading	-9.81015
▁given	-9.81059
▁table	-9.81407
▁method	-9.81741
▁often	-9.82185
li	-9.82537
▁welcome	-9.82613
▁10	-9.8292
▁indeed	-9.83015
▁drop	-9.83022
ment	-9.83045
▁pidgin	-9.83561
▁fail	-9.83644
▁vi	-9.83698
++	-9.83722
▁high	-9.83813
▁confused	-9.83856
▁supports	-9.83864
▁hate	-9.84151
▁applet	-9.84199
▁consider	-9.84652
▁lsmod	-9.84828
▁multiverse	-9.84917
▁scripts	-9.84938
▁beryl	-9.84943
▁pick	-9.85021
▁location	-9.85065
▁lock	-9.85091
▁hp	-9.85117
▁buy	-9.85136
▁err	-9.85283
ge	-9.85535
▁original	-9.85696
one	-9.85702
▁suggestions	-9.85705
out	-9.85863
▁clue	-9.85881
▁primary	-9.85973
glx	-9.86047
▁alsamixer	-9.86306
do	-9.86325
▁xmms	-9.86388
▁background	-9.86471
▁archive	-9.86564
▁doubt	-9.86731
▁phone	-9.86782
▁q	-9.86942
▁wpa	-9.86948
▁names	-9.86987
bin	-9.87788
ac	-9.87804
lo	-9.87996
▁boots	-9.8808
▁disks	-9.88116
ex	-9.88281
▁ty	-9.88388
▁acpi	-9.88414
▁lts	-9.88419
▁repeat	-9.88426
▁three	-9.88427
▁tty	-9.88433
▁eh	-9.88772
▁."	-9.88937
▁contents	-9.88998
▁ipod	-9.89
▁return	-9.89094
▁broadcom	-9.89197
▁details	-9.89215
age	-9.89266
▁noticed	-9.89691
▁shutdown	-9.89937
▁init	-9.8997
▁deal	-9.90009
▁advice	-9.90053
ve	-9.90088
▁smb	-9.90093
▁uname	-9.90114
▁mic	-9.90171
▁convert	-9.90185
est	-9.90378
▁lo	-9.90397
▁pulseaudio	-9.90483
ra	-9.90541
▁exit	-9.90597
▁forget	-9.90637
▁adapter	-9.90723
▁np	-9.90809
▁took	-9.9089
▁8	-9.90951
▁job	-9.91056
▁email	-9.91149
▁rebooted	-9.91259
▁codecs	-9.91265
▁nobody	-9.91636
▁gcc	-9.91705
▁connecting	-9.9172
▁possibly	-9.91859
▁recently	-9.91982
▁mentioned	-9.91985
▁chown	-9.92014
▁short	-9.92278
▁record	-9.92451
ies	-9.92498
▁world	-9.92621
user	-9.92687
▁scroll	-9.92697
▁official	-9.92768
end	-9.92793
▁feature	-9.92809
▁reinstalling	-9.92882
▁common	-9.93023
▁res	-9.93086
▁handle	-9.93152
▁typed	-9.93174
the	-9.93423
▁alot	-9.93532
▁followed	-9.93538
ll	-9.93567
▁sent	-9.93751
▁installs	-9.93991
▁testing	-9.94087
image	-9.94132
▁guy	-9.94183
▁co	-9.94222
▁compiled	-9.94247
▁places	-9.94285
▁gstreamer	-9.94288
▁light	-9.94328
▁she	-9.94379
▁proxy	-9.94484
▁turned	-9.94518
▁er	-9.94565
▁alternative	-9.94599
▁known	-9.94613
▁fun	-9.94645
▁exe	-9.94831
per	-9.94906
▁webcam	-9.94963
▁se	-9.9501
▁icons	-9.95063
am	-9.95099
▁head	-9.95147
▁totally	-9.95277
ate	-9.95488
▁editing	-9.95551
▁half	-9.95586
▁specify	-9.95606
▁choice	-9.9566
▁fs	-9.95666
settings	-9.95823
▁loads	-9.95901
▁stay	-9.96047
▁topic	-9.96121
▁person	-9.96133
▁amarok	-9.96168
▁directories	-9.96274
▁stopped	-9.96311
▁brb	-9.96323
be	-9.96535
▁ubotu	-9.96628
▁!!!	-9.96648
▁anywhere	-9.96676
▁sub	-9.96676
▁match	-9.96739
of	-9.96855
▁nano	-9.96885
▁huh	-9.96969
▁worry	-9.97077
▁domain	-9.97081
▁z	-9.97173
[	-9.97222
▁forward	-9.97402
ne	-9.97467
▁pastebinit	-9.9753
▁block	-9.97582
ut	-9.97705
▁our	-9.9771
▁random	-9.97731
▁english	-9.9781
▁usage	-9.97925
line	-9.98271
ul	-9.98294
▁transfer	-9.98346
▁adobe	-9.98371
ri	-9.98381
▁detected	-9.98401
rs	-9.98421
▁room	-9.98619
▁firmware	-9.98727
▁connections	-9.98763
▁searching	-9.98856
te	-9.98895
▁night	-9.98934
▁nic	-9.98992
▁term	-9.99059
▁months	-9.99131
▁proprietary	-9.99202
▁administration	-9.99399
▁bcm	-9.99625
▁warning	-9.99676
▁bugs	-9.9991
ng	-9.9997
600	-10.0005
ant	-10.0013
▁function	-10.0017
▁multi	-10.0017
▁warty	-10.0022
▁hell	-10.0029
▁localhost	-10.0033
ap	-10.004
▁minute	-10.0045
admin	-10.0049
io	-10.0055
sum	-10.0068
▁level	-10.0074
▁nick	-10.0083
▁expect	-10.0085
▁master	-10.0091
and	-10.0091
▁ways	-10.0118
▁effect	-10.0121
▁performance	-10.0123
▁crash	-10.0128
▁awesome	-10.013
▁uuid	-10.0143
▁restarted	-10.0159
cd	-10.0177
▁note	-10.0182
▁agree	-10.0186
00	-10.0189
▁interfaces	-10.0199
▁comment	-10.02
▁crashes	-10.0212
▁status	-10.0228
▁plugins	-10.0231
▁um	-10.0252
less	-10.0269
▁fonts	-10.0285
▁previous	-10.0307
xx	-10.031
ps	-10.0319
▁listen	-10.0321
▁nfs	-10.0327
essential	-10.0353
na	-10.0356
▁filename	-10.0369
▁detect	-10.0388
▁snd	-10.0392
set	-10.0395
▁fedora	-10.0403
▁gaim	-10.0412
▁apply	-10.0413
ance	-10.0414
▁noob	-10.0425
▁la	-10.0427
mo	-10.0434
▁outside	-10.044
▁unfortunately	-10.0459
rc	-10.0463
▁life	-10.0464
▁rebooting	-10.0469
boot	-10.0476
▁evolution	-10.0478
▁active	-10.0479
▁compatible	-10.0485
▁themes	-10.0497
▁kernels	-10.0503
▁taking	-10.0514
lib	-10.0525
▁figured	-10.053
▁provide	-10.0538
▁gconf	-10.054
▁state	-10.0556
ha	-10.0576
go	-10.0592
▁processor	-10.0623
grep	-10.0639
java	-10.065
▁sync	-10.066
▁super	-10.0674
▁dr	-10.0676
▁sucks	-10.0682
▁pull	-10.0686
▁em	-10.0693
▁nm	-10.0698
▁ro	-10.0705
▁vim	-10.0708
▁distros	-10.0712
ms	-10.0719
▁syntax	-10.0721
▁beta	-10.0743
▁ignore	-10.0744
▁unknown	-10.0755
grub	-10.0762
▁extract	-10.0764
▁sdb	-10.0765
source	-10.0767
ted	-10.0774
▁guest	-10.0776
▁havent	-10.078
▁somebody	-10.0784
▁patch	-10.0786
▁pages	-10.0815
▁lvm	-10.0818
▁manage	-10.082
▁asks	-10.0831
▁require	-10.0834
▁refresh	-10.0838
▁requires	-10.0863
▁denied	-10.0884
▁lists	-10.0888
▁bring	-10.0892
▁join	-10.0895
▁services	-10.0914
restricted	-10.0915
▁pop	-10.0921
ish	-10.0929
▁rc	-10.0931
▁pay	-10.0958
▁selected	-10.096
▁shot	-10.0966
▁neither	-10.0973
▁year	-10.0974
em	-10.0978
▁database	-10.0986
▁howto	-10.0988
▁writing	-10.102
▁opened	-10.1026
ce	-10.1058
▁annoying	-10.1065
co	-10.1075
▁documentation	-10.1079
▁happening	-10.1087
'.	-10.1088
▁secure	-10.1093
▁mo	-10.1096
▁recover	-10.1096
▁according	-10.1113
▁development	-10.1124
gnome	-10.1126
20	-10.1146
▁clients	-10.1149
▁font	-10.1159
▁chip	-10.1178
ag	-10.1179
▁suggested	-10.1183
▁seperate	-10.1192
▁affect	-10.1193
▁required	-10.1195
▁onboard	-10.1202
▁logging	-10.1206
▁wget	-10.1209
▁pain	-10.1211
▁features	-10.1215
▁notice	-10.1216
▁battery	-10.1218
▁ready	-10.1223
ca	-10.1224
▁executable	-10.1228
▁motherboard	-10.1228
ist	-10.1231
▁coming	-10.1238
▁include	-10.1246
▁nv	-10.125
ir	-10.1254
▁locate	-10.1259
release	-10.1266
▁kb	-10.1266
box	-10.1285
▁rev	-10.1289
▁vesa	-10.1293
▁rpm	-10.1294
▁week	-10.1303
▁foo	-10.1307
▁center	-10.1327
▁export	-10.1337
▁bother	-10.1357
▁ath	-10.1368
▁perfectly	-10.1374
▁max	-10.1381
▁her	-10.1392
▁bootable	-10.1398
▁youtube	-10.1402
▁exists	-10.142
▁forum	-10.1421
▁including	-10.1421
▁nat	-10.1423
▁public	-10.1427
▁5	-10.1441
▁defaults	-10.1444
▁red	-10.1447
▁jack	-10.1447
ating	-10.1449
▁intrepid	-10.1459
▁shut	-10.1472
▁afaik	-10.149
▁present	-10.1495
▁accept	-10.1509
▁avoid	-10.1518
my	-10.1518
da	-10.152
▁missed	-10.1563
▁lose	-10.1568
▁sys	-10.1571
▁behind	-10.1579
▁helps	-10.1581
▁txt	-10.159
data	-10.1597
▁happy	-10.1599
▁burning	-10.1609
6-	-10.1613
▁cache	-10.1618
▁torrent	-10.1629
▁freezes	-10.1643
#	-10.1646
▁avi	-10.1646
▁mostly	-10.1648
▁unmount	-10.1658
▁entries	-10.1692
▁tutorial	-10.1696
▁closed	-10.1713
pro	-10.1747
▁written	-10.1748
ig	-10.1755
▁mention	-10.1756
▁continue	-10.1761
▁office	-10.1769
▁native	-10.1778
▁videos	-10.178
▁ti	-10.1787
▁atm	-10.1809
▁sharing	-10.1814
▁libraries	-10.1819
▁personal	-10.1829
▁hidden	-10.183
▁obviously	-10.184
▁fluxbox	-10.1864
▁modify	-10.1879
▁upload	-10.1882
▁advanced	-10.1883
ally	-10.1885
▁reply	-10.1894
▁gnu	-10.19
▁project	-10.19
▁floppy	-10.1905
▁drag	-10.1906
▁du	-10.1937
▁creating	-10.1945
▁generally	-10.1957
▁resolve	-10.1962
▁cut	-10.1978
▁umount	-10.1984
▁specifically	-10.1985
ke	-10.1986
modules	-10.1989
▁con	-10.1991
▁dead	-10.1993
ian	-10.1996
▁oss	-10.1998
port	-10.2004
▁definitely	-10.2004
▁docs	-10.2012
▁plus	-10.2017
time	-10.2018
▁bootloader	-10.2027
▁base	-10.2029
▁xd	-10.2054
▁rules	-10.2069
▁th	-10.2075
▁irssi	-10.2083
▁whenever	-10.2096
▁lsusb	-10.2114
ry	-10.2123
▁startx	-10.2126
▁smart	-10.2128
▁putting	-10.2132
▁hostname	-10.2149
▁necessary	-10.2165
▁waiting	-10.218
▁utility	-10.2186
▁hal	-10.2192
▁daemon	-10.2202
▁encrypted	-10.2203
▁uh	-10.2222
▁situation	-10.2225
▁library	-10.2228
▁contain	-10.2233
▁nor	-10.2243
▁helping	-10.2244
if	-10.2255
▁hangs	-10.2259
▁existing	-10.226
▁aware	-10.2268
ad	-10.227
▁metacity	-10.2278
▁mv	-10.2285
▁al	-10.2294
▁allows	-10.2299
▁movie	-10.2307
▁trash	-10.2324
ck	-10.2327
▁steps	-10.2328
▁along	-10.2333
▁named	-10.2335
▁org	-10.2335
▁moving	-10.2338
ci	-10.2338
▁backports	-10.2346
▁instance	-10.2368
▁harddrive	-10.2369
▁policy	-10.2375
▁monitors	-10.238
▁isp	-10.2388
ia	-10.2389
tu	-10.2389
▁extended	-10.2389
▁geforce	-10.2396
▁don	-10.2409
bo	-10.2421
▁recognize	-10.2423
▁reinstalled	-10.2432
log	-10.2433
pc	-10.2438
▁management	-10.2441
▁recall	-10.2442
▁tail	-10.2445
home	-10.2447
▁plan	-10.2448
▁quit	-10.2449
▁guessing	-10.245
▁properties	-10.2457
rw	-10.2463
▁mod	-10.2466
▁fully	-10.2475
▁rw	-10.2476
▁amount	-10.2477
▁everytime	-10.248
utils	-10.2481
▁restarting	-10.2484
▁fan	-10.2489
▁thunderbird	-10.249
core	-10.2492
▁brand	-10.25
▁verify	-10.2536
▁finding	-10.2548
key	-10.2572
▁hour	-10.2574
ls	-10.2588
▁updating	-10.2592
▁busy	-10.2592
▁blue	-10.2592
▁networks	-10.2595
▁copied	-10.2607
▁esd	-10.2609
▁numbers	-10.2611
▁speakers	-10.2613
▁browse	-10.2625
▁groups	-10.2631
ence	-10.2633
▁generic	-10.264
ld	-10.2642
▁managed	-10.2646
▁bluetooth	-10.2647
▁funny	-10.2666
▁suggestion	-10.2667
▁recommended	-10.2682
▁msg	-10.2695
▁ipv	-10.2717
▁images	-10.2733
▁operating	-10.2735
▁oops	-10.2736
▁mirror	-10.2742
...	-10.2743
▁knew	-10.275
▁iirc	-10.2753
▁gpg	-10.2767
▁di	-10.2777
▁cube	-10.2779
mm	-10.2784
▁unix	-10.2794
▁dialog	-10.2801
▁bind	-10.2804
▁area	-10.2824
▁http	-10.2829
-1	-10.284
▁profile	-10.2861
▁rename	-10.2862
use	-10.287
▁lemme	-10.287
▁rsync	-10.2871
▁response	-10.2871
▁cups	-10.2892
offtopic	-10.2905
▁straight	-10.2908
terminal	-10.2912
▁anyways	-10.2913
▁sleep	-10.2915
▁pe	-10.292
▁cursor	-10.2923
▁physical	-10.2938
▁cds	-10.2946
▁rhythmbox	-10.2953
▁vpn	-10.2953
▁against	-10.2962
ness	-10.2967
▁extension	-10.2968
▁gotta	-10.297
▁storage	-10.2978
he	-10.2981
▁mini	-10.2993
▁processes	-10.2994
mi	-10.2995
▁suspend	-10.2999
▁pdf	-10.3006
▁ra	-10.3016
▁newest	-10.3025
▁buttons	-10.3044
▁fault	-10.3045
-3	-10.3048
▁integrated	-10.3049
▁opening	-10.3051
▁huge	-10.3073
▁cron	-10.3076
▁returns	-10.3091
▁plz	-10.3095
▁xine	-10.3104
▁firestarter	-10.3118
▁mkdir	-10.3121
▁causing	-10.3129
free	-10.3141
▁openoffice	-10.3142
▁opera	-10.3148
▁curious	-10.3154
▁future	-10.3154
▁hopefully	-10.3157
▁fo	-10.316
rom	-10.3164
▁difficult	-10.3168
▁sign	-10.317
▁screwed	-10.3184
min	-10.3192
▁released	-10.3217
▁gig	-10.3219
▁mixer	-10.3226
▁ap	-10.3232
▁partitioning	-10.3237
dy	-10.3255
▁total	-10.3257
▁saved	-10.3261
▁shift	-10.3263
▁unetbootin	-10.3269
um	-10.3274
▁minimal	-10.3277
▁twice	-10.3279
▁owner	-10.3285
▁helpful	-10.3287
▁screw	-10.3298
▁ms	-10.3305
▁20	-10.3314
▁compare	-10.3315
▁sites	-10.3328
▁logical	-10.3328
▁encryption	-10.3349
ah	-10.3371
▁finished	-10.338
ee	-10.3383
panel	-10.3384
▁especially	-10.3385
only	-10.3392
pl	-10.3393
▁easiest	-10.3398
▁pls	-10.34
▁contains	-10.3407
'?	-10.3421
▁invalid	-10.3425
▁ko	-10.3429
▁besides	-10.343
▁recent	-10.3444
▁posted	-10.3448
▁loop	-10.3463
▁gimp	-10.3466
▁chrome	-10.3483
▁ar	-10.3485
▁menus	-10.3486
▁html	-10.3503
▁grab	-10.3508
▁symlink	-10.3511
▁learning	-10.3514
▁mistake	-10.3519
▁graphic	-10.3525
not	-10.3526
▁layout	-10.3529
▁broke	-10.3531
ling	-10.3541
▁wouldnt	-10.3549
di	-10.355
▁included	-10.3551
con	-10.3551
disk	-10.3555
▁nah	-10.3588
▁perfect	-10.3593
▁umm	-10.3658
tab	-10.3665
▁sd	-10.3691
▁stops	-10.3691
▁>>	-10.3695
▁flashplugin	-10.3699
▁bought	-10.3701
tion	-10.3702
▁soundcard	-10.3711
▁hoping	-10.3711
▁tries	-10.3716
▁screenshot	-10.3721
▁valid	-10.3735
▁rar	-10.3744
▁arch	-10.3745
▁beginning	-10.3749
▁track	-10.3754
▁moved	-10.3771
click	-10.3777
▁wrote	-10.3777
ine	-10.378
▁ln	-10.3785
▁form	-10.3796
driver	-10.3797
dir	-10.3803
▁min	-10.3815
codecs	-10.3824
▁ho	-10.3827
▁shit	-10.3829
▁together	-10.3833
▁signal	-10.3836
▁clicking	-10.385
▁yo	-10.3853
▁emerald	-10.3854
▁trick	-10.3861
▁fire	-10.3866
link	-10.3867
▁dis	-10.3868
remove	-10.387
▁suspect	-10.3878
▁rate	-10.388
▁switched	-10.3884
▁cedega	-10.3887
▁throw	-10.3903
▁additional	-10.3904
▁initrd	-10.3904
ud	-10.3913
▁afraid	-10.392
▁lack	-10.3932
▁microsoft	-10.3942
▁copying	-10.3943
▁depending	-10.3945
▁limit	-10.3947
▁color	-10.3951
▁finally	-10.3963
▁killall	-10.3969
▁---	-10.3975
▁further	-10.3981
▁reload	-10.3981
new	-10.3982
▁complain	-10.399
▁rt	-10.3993
ec	-10.4019
▁suse	-10.4032
▁uid	-10.405
▁switching	-10.405
ign	-10.4053
type	-10.4064
?	-10.4067
▁ta	-10.4079
▁libc	-10.408
▁third	-10.4084
▁opengl	-10.4118
▁map	-10.412
mode	-10.4124
▁bashrc	-10.4132
▁quiet	-10.4145
▁sp	-10.415
▁regard	-10.4152
rm	-10.4156
▁unstable	-10.4156
applet	-10.4161
▁xgl	-10.4181
▁azureus	-10.4181
▁crashed	-10.4186
▁string	-10.4189
ph	-10.4196
▁pi	-10.4197
▁qt	-10.4198
ated	-10.4205
ff	-10.4212
▁dhclient	-10.4214
▁pasted	-10.4215
▁launcher	-10.4226
write	-10.4229
▁words	-10.4239
▁vbox	-10.4243
▁lshw	-10.4269
▁newbie	-10.4282
▁temp	-10.4285
▁serious	-10.4289
▁miss	-10.4291
▁pid	-10.4294
ron	-10.4295
▁shares	-10.4299
▁el	-10.4304
op	-10.431
▁?!	-10.4312
▁ffmpeg	-10.432
▁speak	-10.4337
▁loader	-10.4337
▁forwarding	-10.4357
base	-10.4395
▁building	-10.4409
▁seriously	-10.441
▁failing	-10.441
iv	-10.4418
▁define	-10.4427
▁white	-10.4427
▁lsb	-10.4429
▁channels	-10.443
▁lower	-10.4439
▁crazy	-10.4442
▁count	-10.4442
▁insert	-10.4458
768	-10.4459
▁eclipse	-10.4469
▁teh	-10.447
common	-10.4484
▁pa	-10.4485
▁expert	-10.4494
▁blacklist	-10.4501
▁dependency	-10.4501
kernel	-10.4504
▁various	-10.4516
▁reconfigure	-10.4522
▁certainly	-10.4536
▁gl	-10.4536
hi	-10.4557
▁depend	-10.4563
▁camera	-10.4567
▁middle	-10.4584
▁fixes	-10.4584
▁edition	-10.4591
load	-10.4598
▁diff	-10.4599
ga	-10.4614
▁li	-10.4628
12	-10.4629
po	-10.4631
▁tend	-10.4639
code	-10.4648
▁touchpad	-10.4652
▁64-	-10.466
▁..."	-10.4661
▁wi	-10.4664
2-	-10.4675
▁dsl	-10.4684
fi	-10.4693
▁boxes	-10.4696
▁traffic	-10.4701
▁unrar	-10.4705
▁visual	-10.4708
▁repair	-10.472
▁adjust	-10.4732
▁ac	-10.4733
video	-10.4736
package	-10.4738
▁mark	-10.4739
▁weeks	-10.474
personally	-10.4745
▁successfully	-10.4746
▁near	-10.4751
▁god	-10.4762
▁ubottu	-10.4766
▁range	-10.4776
30	-10.4783
▁le	-10.4786
▁automatic	-10.4788
▁value	-10.4797
▁board	-10.4812
▁ppc	-10.4814
usb	-10.4828
▁flood	-10.4838
▁confusing	-10.4844
▁meaning	-10.4862
▁till	-10.4863
▁df	-10.4865
▁pulse	-10.4867
▁glad	-10.4867
▁formatted	-10.4869
▁po	-10.4869
▁morning	-10.4886
16	-10.489
▁wep	-10.4895
▁attempt	-10.4896
nonfree	-10.4898
▁finish	-10.4901
▁appreciate	-10.4912
▁6	-10.4917
▁capture	-10.4925
▁cuz	-10.493
om	-10.4934
gi	-10.4949
▁lamp	-10.4954
▁higher	-10.4956
ast	-10.4964
▁...?	-10.4964
▁imagine	-10.4965
▁bus	-10.4971
▁scp	-10.4987
▁trust	-10.499
▁blah	-10.499
pe	-10.4998
▁yahoo	-10.4999
▁clock	-10.5002
▁rule	-10.5008
▁debug	-10.5009
▁openssh	-10.5014
zz	-10.5022
▁suck	-10.5024
▁folks	-10.5039
▁beep	-10.5045
▁umask	-10.5056
▁party	-10.5087
▁reader	-10.5088
▁configuring	-10.5094
▁screens	-10.5094
▁major	-10.5101
▁across	-10.5102
▁import	-10.5102
▁ghz	-10.5105
▁become	-10.5108
▁envy	-10.5108
▁magic	-10.5114
▁postfix	-10.5119
▁......	-10.5119
▁located	-10.5126
▁school	-10.5129
▁request	-10.5136
▁releases	-10.514
▁knowledge	-10.515
ite	-10.5169
ho	-10.5174
▁locked	-10.5175
▁listening	-10.5178
▁passwd	-10.5181
▁essid	-10.5182
▁thread	-10.5192
conf	-10.5203
▁rendering	-10.5205
▁pkg	-10.521
▁glx	-10.5212
▁recognized	-10.5215
apt	-10.5221
▁headers	-10.5232
▁protocol	-10.5236
▁xrandr	-10.5238
▁dock	-10.525
sp	-10.5253
▁vfat	-10.5254
▁reports	-10.5259
▁array	-10.5266
▁respond	-10.5271
king	-10.5272
av	-10.5273
ii	-10.5276
5-	-10.5281
▁opens	-10.529
▁7	-10.529
▁store	-10.5309
▁quickly	-10.531
br	-10.5331
▁tested	-10.5338
▁solved	-10.5345
50	-10.5349
▁interested	-10.5356
▁ahead	-10.5365
▁msn	-10.5365
▁month	-10.5387
▁te	-10.5395
▁inter	-10.5405
ous	-10.5409
▁reasons	-10.541
res	-10.5438
▁libs	-10.544
headers	-10.5444
ub	-10.5449
▁32-	-10.5451
▁sshd	-10.5453
gtk	-10.5454
▁returned	-10.5462
▁1024	-10.5467
▁target	-10.5473
▁apple	-10.5475
ot	-10.5481
▁slower	-10.5483
▁stream	-10.5485
▁wm	-10.5491
▁corporation	-10.5503
ice	-10.5506
▁automount	-10.5513
▁task	-10.553
rr	-10.5534
▁failure	-10.5537
od	-10.5553
▁tcp	-10.5562
▁syslog	-10.5578
▁scratch	-10.559
cl	-10.5601
▁wicd	-10.5607
system	-10.5611
read	-10.5617
▁sweet	-10.5624
100	-10.5634
▁def	-10.5635
▁hack	-10.5637
sc	-10.5639
▁silly	-10.5653
▁shortcut	-10.5655
for	-10.5658
ab	-10.5666
▁prevent	-10.5667
▁showed	-10.567
ary	-10.567
extras	-10.5671
bar	-10.5678
intel	-10.5679
▁ch	-10.5681
▁mobile	-10.5682
au	-10.5694
root	-10.5704
▁lubuntu	-10.5714
▁laptops	-10.5717
▁shall	-10.5723
▁quotes	-10.5725
▁hrm	-10.5739
▁natty	-10.5751
▁couldnt	-10.5754
mount	-10.5755
▁downloads	-10.5758
▁mate	-10.5759
▁eg	-10.5785
fairly	-10.5785
dvd	-10.579
ef	-10.579
▁chromium	-10.5809
▁panic	-10.5809
mod	-10.5819
▁ccsm	-10.5836
ak	-10.584
▁perform	-10.5843
▁thanx	-10.5844
▁winxp	-10.5844
preferences	-10.5856
▁points	-10.5869
▁gksu	-10.5886
▁hw	-10.5903
▁perl	-10.5905
▁freeze	-10.5922
▁vs	-10.5937
mail	-10.5948
▁self	-10.5951
ise	-10.5956
ble	-10.5958
▁decent	-10.5962
▁::	-10.5962
▁rescue	-10.5963
▁linksys	-10.5965
▁udev	-10.5969
▁begin	-10.597
tools	-10.5971
▁sit	-10.5972
ue	-10.5978
▁addresses	-10.5989
▁money	-10.599
windows	-10.5996
▁ot	-10.5998
▁atheros	-10.6007
client	-10.6008
+1	-10.6018
▁gotten	-10.6024
▁impossible	-10.6024
▁speaker	-10.6026
▁codec	-10.6029
▁gmail	-10.6038
▁confirm	-10.6047
▁googling	-10.6064
▁putty	-10.61
gl	-10.6101
▁acer	-10.6101
▁erm	-10.6102
ware	-10.6108
▁activate	-10.6117
▁reference	-10.614
script	-10.6145
▁provided	-10.6146
▁pack	-10.6148
ni	-10.6152
▁usr	-10.616
▁debs	-10.6171
▁virus	-10.6177
ure	-10.6179
▁absolutely	-10.6184
rt	-10.6199
▁complicated	-10.621
▁typo	-10.6219
▁fi	-10.622
▁chose	-10.6246
▁community	-10.6249
▁stored	-10.6267
so	-10.6279
=0	-10.6282
▁bo	-10.6283
work	-10.6284
info	-10.63
▁movies	-10.63
▁wtf	-10.6303
▁zip	-10.631
▁crack	-10.6321
▁ne	-10.6322
ber	-10.6323
200	-10.6329
▁realtek	-10.6338
vo	-10.6342
▁edited	-10.6346
ical	-10.6351
▁uninstalled	-10.6358
ill	-10.6362
rk	-10.6367
lu	-10.6368
▁ppp	-10.637
▁helped	-10.6371
▁mm	-10.6385
▁dump	-10.6388
▁oo	-10.6389
▁osx	-10.6395
▁multimedia	-10.6397
▁wasnt	-10.6403
▁mono	-10.6407
nn	-10.6423
▁appropriate	-10.6424
▁svn	-10.6427
▁fatal	-10.6428
▁playback	-10.644
pi	-10.6446
▁operation	-10.6469
▁burned	-10.6473
▁distribution	-10.6473
down	-10.6474
oss	-10.6478
▁thru	-10.6478
der	-10.6488
-2	-10.6489
▁amsn	-10.6502
eg	-10.651
▁friends	-10.6511
▁risk	-10.6515
▁disconnect	-10.6516
based	-10.6516
ram	-10.6518
▁ma	-10.6518
rf	-10.6522
▁allowed	-10.6528
▁progress	-10.6538
ba	-10.6539
ja	-10.654
▁refer	-10.6542
▁fair	-10.6544
▁meta	-10.6545
list	-10.655
▁pl	-10.655
▁flag	-10.656
"	-10.6562
▁1280	-10.6574
▁????	-10.6583
open	-10.6587
▁dvds	-10.66
editor	-10.6601
pa	-10.6608
vi	-10.6611
▁fit	-10.6621
sta	-10.6626
▁answers	-10.6636
▁fr	-10.6641
▁research	-10.6641
db	-10.6643
▁launchpad	-10.6644
▁plays	-10.6655
40	-10.6655
▁success	-10.6657
ick	-10.6658
▁opinion	-10.6658
▁conky	-10.6667
▁knoppix	-10.6669
▁checkinstall	-10.6669
▁dl	-10.6677
▁entirely	-10.6686
run	-10.6688
▁walk	-10.6695
▁authentication	-10.6711
by	-10.6729
▁hav	-10.6729
her	-10.6731
▁pipe	-10.6733
▁content	-10.6738
▁increase	-10.676
▁lcd	-10.6761
▁variable	-10.677
ens	-10.6771
▁hence	-10.6778
01	-10.6782
▁alone	-10.6785
▁initial	-10.6804
▁dri	-10.6805
▁lxde	-10.6817
▁screensaver	-10.6824
▁fixing	-10.6825
▁networkmanager	-10.6826
▁zero	-10.6826
▁players	-10.6833
add	-10.6833
▁op	-10.6841
▁15	-10.6846
▁asus	-10.6847
▁compiler	-10.6851
▁determine	-10.6852
▁ogg	-10.6861
▁je	-10.6862
ever	-10.6863
son	-10.6875
▁9	-10.6881
▁friendly	-10.6885
ik	-10.6886
▁owned	-10.6889
▁corrupted	-10.6891
ru	-10.6897
▁seemed	-10.691
▁plain	-10.6913
▁ex	-10.6915
screen	-10.6918
ible	-10.6922
▁subnet	-10.6933
▁glxinfo	-10.6936
▁emacs	-10.6943
▁hot	-10.6951
▁useless	-10.6972
▁overwrite	-10.6982
▁medibuntu	-10.6986
▁classic	-10.6997
▁backups	-10.7003
ged	-10.7017
▁war	-10.7025
▁hosts	-10.7035
▁crontab	-10.7036
ks	-10.7045
▁notebook	-10.7046
▁referr	-10.705
▁specs	-10.705
▁sw	-10.7054
gg	-10.7063
▁800	-10.7065
we	-10.7068
▁relevant	-10.7079
▁cr	-10.7081
▁highlight	-10.7084
▁hibernate	-10.7088
▁12	-10.7098
og	-10.7101
▁family	-10.7104
▁scsi	-10.7123
related	-10.7128
▁telnet	-10.7137
▁buffer	-10.7142
▁gpu	-10.7148
▁final	-10.7154
▁disabling	-10.7157
▁generate	-10.716
▁stage	-10.7168
gr	-10.7173
▁automatix	-10.7196
▁clicked	-10.7197
▁smp	-10.7197
▁stand	-10.7199
▁worse	-10.7206
▁ga	-10.7207
plugin	-10.7208
17	-10.721
▁ver	-10.7211
share	-10.7213
▁decided	-10.7216
▁lu	-10.7217
host	-10.7218
▁sftp	-10.7228
bot	-10.7235
▁expected	-10.7237
▁shouldnt	-10.7245
cr	-10.7246
▁offer	-10.7248
▁xterm	-10.7259
=1	-10.727
thing	-10.7277
off	-10.728
ful	-10.7289
gdm	-10.7294
▁ge	-10.7301
ize	-10.7304
▁programming	-10.7311
▁killed	-10.7316
session	-10.7323
▁da	-10.733
▁kdm	-10.7346
▁transmission	-10.7349
▁obvious	-10.7358
▁parts	-10.7365
ping	-10.7371
▁picture	-10.7372
▁clone	-10.7374
▁esc	-10.7375
▁wipe	-10.7391
▁crashing	-10.74
hda	-10.7404
▁careful	-10.7434
▁gr	-10.7436
▁upon	-10.7439
▁200	-10.7446
▁si	-10.7459
▁usual	-10.746
▁late	-10.7477
▁fuse	-10.7477
▁document	-10.7479
ky	-10.7486
ver	-10.7497
▁mint	-10.7499
fa	-10.7504
ging	-10.7515
▁resources	-10.7516
tro	-10.7531
▁dumb	-10.7537
▁refuse	-10.7548
▁kept	-10.756
▁handy	-10.7565
▁book	-10.7572
▁upgrades	-10.7581
▁upstart	-10.7583
va	-10.7584
ial	-10.7586
▁db	-10.7591
▁quality	-10.76
▁extensions	-10.7603
tic	-10.7607
800	-10.7621
▁deleting	-10.7621
-0	-10.7625
▁notification	-10.7629
dd	-10.7632
▁dig	-10.7638
▁nmap	-10.7644
▁sending	-10.7645
▁packets	-10.7647
drive	-10.7655
rate	-10.7662
▁>	-10.7665
80	-10.7668
▁tweak	-10.7673
▁ignored	-10.7676
▁passwords	-10.7699
▁br	-10.7713
▁sir	-10.7716
60	-10.7727
▁company	-10.7734
▁revert	-10.7739
▁purpose	-10.7739
back	-10.7743
▁stat	-10.7743
pr	-10.7746
▁guides	-10.7746
▁tree	-10.7746
▁pin	-10.7752
▁acceleration	-10.776
▁skip	-10.7761
▁alias	-10.7762
ound	-10.7763
ug	-10.7768
▁muted	-10.7773
ow	-10.7783
▁buggy	-10.7787
▁honestly	-10.779
▁hdparm	-10.7791
sa	-10.7791
▁cheap	-10.7798
▁bridge	-10.7799
▁wat	-10.7799
▁ppl	-10.7803
▁unplug	-10.7811
▁eject	-10.7812
▁resolutions	-10.7824
card	-10.7827
xine	-10.7842
▁contact	-10.7843
▁mounts	-10.7848
▁netstat	-10.7849
▁ob	-10.7867
▁cmd	-10.7871
▁register	-10.7873
▁tunnel	-10.7879
▁locally	-10.7891
ner	-10.7892
ger	-10.7902
▁factoid	-10.7906
▁title	-10.7908
▁ifup	-10.7909
▁displays	-10.7911
▁hurt	-10.7911
▁bigger	-10.7912
kubuntu	-10.7913
▁gu	-10.7922
▁pcm	-10.7942
led	-10.7944
▁mobo	-10.7946
▁ssd	-10.7954
ster	-10.7957
▁banshee	-10.7958
gin	-10.7959
▁runlevel	-10.7959
▁turns	-10.796
top	-10.7967
rn	-10.7967
▁madwifi	-10.7969
int	-10.7974
▁lead	-10.7975
▁pen	-10.7983
gig	-10.7996
▁omg	-10.8011
▁redirect	-10.8015
▁smooth	-10.8018
▁cam	-10.8021
▁resource	-10.8026
ack	-10.8027
▁vid	-10.8032
▁lilo	-10.8035
1024	-10.8043
▁cross	-10.8049
▁spam	-10.8052
▁ba	-10.8066
▁reach	-10.8075
▁split	-10.8076
▁fetch	-10.8091
▁index	-10.8108
ier	-10.8109
▁##	-10.8111
hd	-10.8112
you	-10.8121
▁lin	-10.8124
▁readme	-10.8129
▁idk	-10.8133
▁advise	-10.8144
oc	-10.8154
▁wallpaper	-10.8161
▁pressing	-10.8164
ring	-10.8165
▁thus	-10.8172
▁description	-10.8172
▁bittorrent	-10.8178
▁ips	-10.8182
▁discussion	-10.8185
▁shortcuts	-10.8191
▁sessions	-10.8192
ight	-10.8192
backspace	-10.8199
▁libdvdcss	-10.821
print	-10.8211
▁inet	-10.8212
▁describe	-10.8214
▁scanner	-10.8215
▁class	-10.8217
▁shown	-10.8218
▁lame	-10.8218
ass	-10.8226
▁assign	-10.8231
ple	-10.8234
oo	-10.8236
ess	-10.8243
▁limited	-10.8253
▁img	-10.826
▁jump	-10.8262
▁memtest	-10.827
▁played	-10.8273
red	-10.8277
cs	-10.8283
buntu	-10.8283
▁wan	-10.8284
dep	-10.8288
▁reported	-10.8293
15	-10.8297
▁redhat	-10.8297
old	-10.8307
▁bla	-10.8316
▁linked	-10.8322
ix	-10.8323
▁dma	-10.8336
▁toshiba	-10.8341
▁rom	-10.8361
▁decide	-10.8368
▁cfg	-10.8369
▁offtopic	-10.8375
▁fps	-10.8378
▁desktops	-10.838
▁series	-10.839
ell	-10.8392
▁qemu	-10.8396
▁cheers	-10.8407
▁documents	-10.8408
▁fill	-10.8416
▁cvs	-10.8419
▁label	-10.8427
▁remotely	-10.8441
▁burner	-10.8443
▁formats	-10.8447
▁nickname	-10.8447
▁fa	-10.8451
▁car	-10.8453
▁sector	-10.8463
▁serial	-10.8469
▁itunes	-10.8471
pp	-10.8479
plugins	-10.8488
▁kk	-10.8501
▁news	-10.8505
▁argument	-10.8511
hz	-10.8518
▁inc	-10.8525
pci	-10.8526
▁dbus	-10.8527
▁mis	-10.8527
▁maverick	-10.8534
▁wanting	-10.854
tor	-10.8545
app	-10.8552
installer	-10.8556
▁iwlist	-10.8557
▁synaptics	-10.8562
▁taken	-10.8563
▁characters	-10.8564
54	-10.8573
ard	-10.8585
▁forever	-10.8588
▁''	-10.8591
map	-10.8595
▁arrow	-10.8602
▁tray	-10.8606
▁ja	-10.8619
▁reformat	-10.8623
▁alien	-10.8631
▁bits	-10.8636
our	-10.864
▁gigs	-10.8642
ib	-10.8646
ain	-10.8649
network	-10.8655
xconfig	-10.8663
▁object	-10.8664
▁kick	-10.8672
▁attempting	-10.8675
look	-10.8682
▁soft	-10.8686
▁?"	-10.8687
▁lynx	-10.8687
▁hdmi	-10.8696
▁printing	-10.8697
▁honest	-10.8704
▁replaced	-10.8706
▁amixer	-10.8706
player	-10.8709
▁daily	-10.871
▁gra	-10.8711
ding	-10.8717
▁heck	-10.8717
act	-10.8727
▁instal	-10.8728
form	-10.873
▁avail	-10.874
mon	-10.8741
▁macbook	-10.8745
▁values	-10.8749
▁recompile	-10.8752
fe	-10.8773
▁thingy	-10.8779
▁dial	-10.8781
▁30	-10.8781
▁suddenly	-10.8793
space	-10.8802
▁worries	-10.8818
ek	-10.8821
▁smaller	-10.8829
▁filesystems	-10.883
check	-10.8831
▁sudoers	-10.8832
test	-10.8836
media	-10.8836
▁specified	-10.8837
▁jre	-10.8838
▁expand	-10.8842
ile	-10.8849
php	-10.8851
▁bootup	-10.8854
▁fe	-10.8856
▁thinkpad	-10.8858
▁mdadm	-10.886
day	-10.8869
administration	-10.8872
si	-10.8881
▁wa	-10.8891
▁developers	-10.8893
▁cases	-10.8906
▁bz	-10.8911
▁priv	-10.8922
▁git	-10.8923
lic	-10.8924
▁rip	-10.8928
▁article	-10.8934
▁excellent	-10.8934
ay	-10.8935
▁microphone	-10.894
▁modes	-10.8943
▁produce	-10.8946
ect	-10.8946
▁earth	-10.8946
▁layer	-10.8951
ning	-10.8955
exec	-10.8959
▁edge	-10.8963
▁engine	-10.8965
▁below	-10.8971
sound	-10.8974
13	-10.8978
▁everybody	-10.8981
▁aha	-10.8989
qui	-10.8992
▁logout	-10.8996
▁equivalent	-10.8998
▁sim	-10.9008
▁ban	-10.9012
▁realize	-10.9012
▁appearance	-10.9022
par	-10.9032
ake	-10.9038
▁auth	-10.904
▁loss	-10.904
▁lp	-10.9053
▁doc	-10.9054
▁sta	-10.9059
▁catch	-10.907
version	-10.907
▁viewer	-10.9074
▁identify	-10.9075
▁fusion	-10.9078
ric	-10.909
ya	-10.9096
▁gen	-10.9099
▁fu	-10.9101
▁house	-10.9105
▁action	-10.9109
19	-10.911
▁four	-10.9114
▁eventually	-10.9128
▁sry	-10.9131
▁previously	-10.9135
▁slackware	-10.914
▁es	-10.9146
▁tha	-10.917
▁item	-10.9171
▁adsl	-10.9182
les	-10.9193
▁bytes	-10.9195
▁partiton	-10.9206
▁char	-10.9207
▁proc	-10.9218
▁logo	-10.9218
▁remount	-10.9221
lly	-10.9222
gra	-10.9223
control	-10.9231
▁wide	-10.9245
▁dash	-10.9249
▁recording	-10.9252
▁prefix	-10.9254
▁dynamic	-10.9259
▁shrink	-10.9259
shell	-10.9262
▁immediately	-10.9266
over	-10.9269
bus	-10.927
▁actionparsnip	-10.9271
▁pcmcia	-10.9275
▁field	-10.9276
ide	-10.9283
▁isntall	-10.9291
▁nomodeset	-10.9296
▁bu	-10.9298
▁bro	-10.9302
▁destination	-10.9308
▁lsof	-10.9311
▁ee	-10.9326
▁compatibility	-10.9326
▁parameters	-10.9328
▁hdb	-10.9328
▁ipw	-10.9344
▁ui	-10.9349
▁worried	-10.935
▁headphones	-10.9353
▁attention	-10.9356
▁socket	-10.9362
▁statement	-10.9363
▁corrupt	-10.9368
▁ahhh	-10.9369
▁mins	-10.9381
▁var	-10.9386
▁speaking	-10.9387
tain	-10.9393
▁understanding	-10.9397
▁accessing	-10.9408
▁mesa	-10.9409
4-	-10.9414
▁"...	-10.9419
ably	-10.9428
▁legal	-10.9435
▁downgrade	-10.9437
▁exp	-10.9439
▁terms	-10.9439
▁plenty	-10.9442
▁workaround	-10.9442
▁processing	-10.9443
▁digital	-10.9449
▁tired	-10.9454
▁80	-10.9461
▁teach	-10.9467
3-	-10.9467
▁para	-10.9471
▁pentium	-10.9472
▁pr	-10.9478
tb	-10.9485
▁env	-10.9492
▁blocks	-10.9509
▁character	-10.9514
:0	-10.9517
▁pure	-10.9534
▁attached	-10.9535
▁design	-10.9536
▁py	-10.9539
point	-10.9555
ned	-10.9557
▁unallocated	-10.9559
▁hide	-10.9562
▁aux	-10.9566
▁del	-10.9567
▁50	-10.9571
▁tr	-10.9574
▁sees	-10.958
▁member	-10.9584
menu	-10.9584
▁ugly	-10.959
▁green	-10.9591
▁locale	-10.9595
▁caps	-10.9598
▁bt	-10.9599
▁human	-10.9599
▁causes	-10.96
▁yours	-10.96
▁ntp	-10.9602
▁uni	-10.9608
▁usplash	-10.9611
▁ooo	-10.9613
bi	-10.9621
▁backport	-10.9625
▁cfdisk	-10.9627
▁dark	-10.9627
device	-10.9628
!	-10.9629
▁ruby	-10.964
start	-10.9641
ious	-10.9642
auto	-10.9643
▁radio	-10.9647
▁functionality	-10.9652
686	-10.9655
▁troubleshooting	-10.9659
ized	-10.9664
▁iam	-10.9665
▁component	-10.9668
▁dm	-10.9674
▁slightly	-10.9679
▁keyring	-10.9683
&	-10.97
keys	-10.9705
configure	-10.9709
▁(/	-10.9712
▁scanning	-10.9715
▁ages	-10.9724
debian	-10.9727
▁tomorrow	-10.9727
mhz	-10.9731
▁afterwards	-10.9733
▁mythtv	-10.9734
▁act	-10.9744
paste	-10.9748
way	-10.9753
▁beyond	-10.9759
▁makefile	-10.9763
ze	-10.9768
▁tech	-10.9777
▁saving	-10.9778
▁shoot	-10.9778
are	-10.9779
▁poor	-10.9781
▁mad	-10.9785
▁seveas	-10.9788
▁glxgears	-10.9791
▁period	-10.9791
▁nevermind	-10.9791
▁brain	-10.9795
▁partion	-10.9795
▁et	-10.9799
▁webmin	-10.98
book	-10.9805
▁creates	-10.9806
ute	-10.9813
cu	-10.9814
su	-10.9815
▁crt	-10.9819
▁ufw	-10.9822
▁pcs	-10.9825
▁mu	-10.9828
▁emulator	-10.9829
▁arent	-10.9831
light	-10.9832
▁aplay	-10.9838
▁torrents	-10.9839
▁wire	-10.985
pad	-10.9856
▁feeling	-10.9869
▁answered	-10.9877
▁architecture	-10.9877
▁gt	-10.9878
ui	-10.9883
▁aim	-10.9883
▁product	-10.9888
▁yeh	-10.9894
▁killing	-10.9898
▁eee	-10.9899
▁corner	-10.9899
▁audacity	-10.9905
▁ibm	-10.9908
▁provides	-10.9922
▁somewhat	-10.9925
▁popular	-10.9931
▁legacy	-10.9935
▁gfx	-10.9936
▁adduser	-10.9942
▁reads	-10.9949
▁agp	-10.9952
wa	-10.9956
bb	-10.9964
▁ensure	-10.997
▁air	-10.9972
▁mon	-10.9981
kb	-10.9985
▁cl	-10.9989
▁utf	-10.9997
▁sitting	-10.9997
sync	-11.0015
▁accounts	-11.0016
▁hook	-11.005
▁conflict	-11.0051
▁understood	-11.0054
gle	-11.0058
▁mute	-11.0073
▁blocked	-11.0078
▁wmv	-11.0084
ler	-11.0088
can	-11.0093
▁vendor	-11.0093
▁invoke	-11.01
▁yay	-11.0107
▁team	-11.0108
ki	-11.0112
▁entered	-11.0124
▁spot	-11.013
vnc	-11.0141
▁willing	-11.0155
here	-11.0164
▁cover	-11.0174
-8	-11.018
▁connects	-11.0187
▁mountpoint	-11.0191
tool	-11.0193
▁pointing	-11.0195
▁modified	-11.0199
▁40	-11.02
build	-11.021
▁voice	-11.0212
▁direction	-11.0217
▁rebuild	-11.0218
▁ju	-11.0226
▁hub	-11.0228
▁lucky	-11.0229
▁stock	-11.0232
alsa	-11.0233
▁canonical	-11.0242
▁encrypt	-11.0247
ales	-11.0252
▁ownership	-11.0258
▁spec	-11.0259
▁hitting	-11.0264
▁crossover	-11.0272
▁!?	-11.0272
▁configs	-11.0279
ose	-11.0284
▁wav	-11.0285
▁yah	-11.0288
▁lag	-11.0306
▁chan	-11.031
▁includes	-11.0312
▁mainly	-11.0313
▁filter	-11.0314
▁xf	-11.0316
▁sid	-11.0326
▁routers	-11.0334
py	-11.0336
33	-11.0338
▁==	-11.0348
ual	-11.0348
▁tick	-11.0352
▁hat	-11.0362
▁enabling	-11.0365
▁enjoy	-11.0365
win	-11.0366
▁openbox	-11.0373
▁autoremove	-11.0374
▁exec	-11.0378
▁empathy	-11.0378
▁history	-11.0392
▁erase	-11.0401
▁ka	-11.0404
▁becomes	-11.041
▁fuck	-11.0416
▁experienced	-11.0418
▁wierd	-11.0419
▁discuss	-11.0422
ade	-11.0426
like	-11.043
▁hu	-11.0432
firefox	-11.0435
▁rmmod	-11.044
▁randomly	-11.0441
▁precise	-11.0447
▁trans	-11.0453
▁reverse	-11.0454
▁studio	-11.0454
▁prog	-11.0464
▁optional	-11.0473
▁patience	-11.0473
▁formatting	-11.0479
kit	-11.0484
▁brother	-11.0487
fix	-11.0491
▁bs	-11.0493
▁breaks	-11.05
▁star	-11.0513
▁listing	-11.052
▁die	-11.0525
▁packet	-11.0529
▁pictures	-11.053
▁considered	-11.0536
han	-11.0547
▁jo	-11.0554
▁workstation	-11.0556
▁phpmyadmin	-11.0569
▁unlock	-11.057
spent	-11.0577
▁mar	-11.0579
fusion	-11.0585
▁thnx	-11.0589
70	-11.0591
▁troubles	-11.0597
▁xsession	-11.06
▁vncserver	-11.0616
▁crappy	-11.0617
▁waste	-11.0622
▁accomplish	-11.0624
▁controls	-11.0625
▁nameserver	-11.0633
▁tee	-11.0638
sk	-11.0639
▁printers	-11.0644
97	-11.0648
▁gnash	-11.065
default	-11.0654
▁commandline	-11.0657
▁webserver	-11.0657
▁broadcast	-11.0658
▁tips	-11.0666
▁apart	-11.0667
▁solutions	-11.0668
▁gimme	-11.0672
sec	-11.0676
▁delay	-11.0686
▁framebuffer	-11.0693
▁selection	-11.0701
nix	-11.0705
▁na	-11.0713
▁german	-11.0714
▁websites	-11.0732
▁turning	-11.0733
▁blow	-11.0737
▁commented	-11.0737
ear	-11.0738
▁youre	-11.0739
▁que	-11.0746
ale	-11.0752
;	-11.0752
▁prefs	-11.0756
▁ability	-11.0756
▁piece	-11.0758
▁goal	-11.0761
▁ends	-11.0769
gs	-11.0772
1-	-11.0773
networking	-11.0785
files	-11.0789
bl	-11.079
▁spend	-11.0791
cap	-11.0791
▁glib	-11.0795
▁dec	-11.0795
ns	-11.0805
etc	-11.0811
▁mpeg	-11.0814
part	-11.082
▁analog	-11.0826
45	-11.0828
current	-11.0837
▁minimize	-11.084
▁mi	-11.0842
▁concern	-11.0843
ny	-11.0843
ator	-11.0853
▁parted	-11.0859
▁alpha	-11.0867
▁serve	-11.0868
cc	-11.0873
▁troubleshoot	-11.0874
▁administrator	-11.0875
▁complaining	-11.0877
▁googled	-11.0879
▁designed	-11.088
ou	-11.0891
▁watching	-11.0891
lan	-11.0899
▁closes	-11.0905
▁..?	-11.0911
▁privileges	-11.0918
▁messenger	-11.0925
▁dropped	-11.0925
▁combination	-11.0932
low	-11.0938
▁sony	-11.0949
▁11	-11.095
ions	-11.0958
▁visit	-11.0958
bs	-11.096
▁envyng	-11.0961
▁kvm	-11.0963
▁learned	-11.0965
▁dangerous	-11.0968
▁assigned	-11.0974
ton	-11.0979
24	-11.0979
qu	-11.0986
▁undo	-11.099
make	-11.099
▁uncomment	-11.0991
▁ugh	-11.0994
▁license	-11.0996
lin	-11.0996
▁mem	-11.1007
gen	-11.1014
▁coz	-11.1017
▁interrupt	-11.1017
▁hint	-11.102
ations	-11.1026
▁browsers	-11.1029
ash	-11.1031
480	-11.1031
▁wise	-11.104
▁defined	-11.1042
▁fall	-11.1049
jre	-11.106
▁panels	-11.1066
▁fullscreen	-11.107
27	-11.1074
▁binaries	-11.1089
ka	-11.1093
▁tabs	-11.1095
▁append	-11.1103
▁uhm	-11.1104
▁cos	-11.111
▁rock	-11.1118
tar	-11.1122
window	-11.1122
500	-11.1124
▁complex	-11.1125
▁items	-11.1126
▁blocking	-11.1129
ob	-11.1129
fr	-11.1134
▁sed	-11.1138
▁identical	-11.1144
▁somthing	-11.1147
▁newb	-11.1149
▁twinview	-11.1155
uck	-11.1155
▁taskbar	-11.1162
ew	-11.1164
packages	-11.1165
▁alter	-11.1166
▁sl	-11.1167
alternatives	-11.1172
▁thinks	-11.1172
▁accessories	-11.1172
▁prop	-11.1177
▁fl	-11.1178
▁appreciated	-11.1186
86_64	-11.1191
▁500	-11.1196
▁tarball	-11.1199
▁freenode	-11.1202
▁ssid	-11.1208
▁parameter	-11.121
▁browsing	-11.1213
▁jsut	-11.1214
▁smbfs	-11.1215
▁switches	-11.1218
▁xen	-11.1218
▁platform	-11.122
▁indicator	-11.1228
▁harddisk	-11.1235
▁stays	-11.1236
▁larger	-11.1237
▁imho	-11.1239
wards	-11.1241
▁leaving	-11.1242
▁scr	-11.1247
willis	-11.1252
▁art	-11.1258
mer	-11.1265
▁hotplug	-11.1265
▁vo	-11.1265
▁ended	-11.127
ey	-11.1283
ition	-11.1292
▁gain	-11.1292
▁business	-11.1301
ati	-11.1309
▁disconnected	-11.1311
▁backed	-11.1315
▁resume	-11.1317
gm	-11.1321
▁parition	-11.1323
▁bah	-11.1328
compiz	-11.1329
mplayer	-11.1334
gui	-11.1336
▁style	-11.1336
▁routing	-11.134
▁nearly	-11.1341
mac	-11.1341
az	-11.1342
▁column	-11.1345
▁timeout	-11.1357
ev	-11.1362
cal	-11.1363
▁fancy	-11.1368
nes	-11.1378
▁thoughts	-11.1379
▁espa	-11.1382
▁streaming	-11.1387
try	-11.1388
▁activated	-11.1388
pic	-11.1389
src	-11.1392
▁surf	-11.1393
▁beat	-11.14
▁atleast	-11.1405
▁hanging	-11.1411
▁limewire	-11.1412
▁pxe	-11.1412
▁60	-11.143
ped	-11.1443
term	-11.1448
▁sets	-11.1452
▁visible	-11.1457
▁parse	-11.1468
▁pw	-11.1468
▁letters	-11.1473
▁selecting	-11.1474
▁24	-11.1475
▁frozen	-11.1476
▁differ	-11.1482
22	-11.1483
che	-11.1483
▁mc	-11.1489
▁640	-11.1492
▁trigger	-11.1502
▁usable	-11.1505
▁ohh	-11.1512
▁***	-11.1515
sys	-11.1516
▁bandwidth	-11.1517
▁frontend	-11.1519
▁mix	-11.1527
300	-11.153
▁darn	-11.1533
▁individual	-11.154
▁refused	-11.1542
▁effort	-11.1547
▁generated	-11.1548
▁hash	-11.1549
▁roger	-11.1556
▁cha	-11.1566
▁ssl	-11.1571
▁brasero	-11.1578
▁xfs	-11.1579
▁512	-11.158
▁comments	-11.1586
▁incorrect	-11.1587
▁powerful	-11.159
▁gotcha	-11.1592
▁idiot	-11.1593
▁roll	-11.1595
▁destroy	-11.1601
▁spaces	-11.1604
other	-11.1613
rry	-11.1614
▁unsupported	-11.1616
▁receive	-11.1625
▁noise	-11.1629
cp	-11.163
▁sell	-11.1637
▁achieve	-11.1639
25	-11.164
refore	-11.1647
amd	-11.1648
▁calls	-11.1655
▁ph	-11.1655
vm	-11.1662
▁loose	-11.1668
▁acc	-11.1675
▁par	-11.1679
▁draw	-11.1689
▁detail	-11.1689
▁ops	-11.1691
master	-11.1697
▁photoshop	-11.17
▁registered	-11.17
▁freebsd	-11.1701
gu	-11.1702
dm	-11.1703
▁imo	-11.1713
▁proceed	-11.1715
▁manpage	-11.1717
▁raw	-11.1719
▁sane	-11.1721
▁failsafe	-11.1723
art	-11.1725
▁directions	-11.1731
▁bob	-11.1736
▁header	-11.1737
▁xml	-11.1746
▁focus	-11.1761
▁desk	-11.1762
je	-11.1762
▁initramfs	-11.1767
▁cs	-11.1768
▁ini	-11.1769
▁favor	-11.1769
▁temporarily	-11.1769
extremely	-11.1775
▁behaviour	-11.1777
▁knowing	-11.1777
installed	-11.1777
af	-11.1779
rec	-11.1783
let	-11.1789
▁spit	-11.1791
▁utc	-11.1797
▁realplayer	-11.1802
gt	-11.1804
▁patches	-11.1808
▁eye	-11.1814
▁sb	-11.1815
▁tiny	-11.1816
mysql	-11.1816
▁cancel	-11.1817
winehq	-11.1824
▁nouveau	-11.1827
ult	-11.183
▁assist	-11.1841
▁athlon	-11.1847
▁fyi	-11.1856
▁definition	-11.1857
▁superblock	-11.187
lar	-11.1872
▁epiphany	-11.1886
▁wich	-11.189
▁konqueror	-11.1894
▁ru	-11.1894
play	-11.1899
ach	-11.19
▁fiesty	-11.1909
▁ld	-11.1913
▁cheese	-11.1917
▁sup	-11.1922
▁sectors	-11.1926
▁tip	-11.1927
date	-11.1928
▁pointer	-11.1939
▁planning	-11.1941
▁slot	-11.1945
aa	-11.1949
its	-11.1962
▁lm	-11.1964
▁busybox	-11.1965
ray	-11.1966
▁iface	-11.1968
▁bsd	-11.1977
▁workgroup	-11.1979
hand	-11.1982
▁ultimate	-11.1996
▁hung	-11.1999
izing	-11.2001
▁por	-11.2003
▁preview	-11.2004
▁che	-11.2012
▁testdisk	-11.2016
▁sdc	-11.202
▁**	-11.2023
▁uninstalling	-11.2024
▁resizing	-11.2028
▁borked	-11.2031
▁remix	-11.2032
▁cdrecord	-11.2032
▁unzip	-11.2036
▁push	-11.2042
▁16	-11.2046
▁developer	-11.2048
▁gaming	-11.2049
eee	-11.2055
▁recreate	-11.2056
▁smtp	-11.2062
▁wife	-11.2068
▁thin	-11.2069
▁cifs	-11.2075
fer	-11.2083
▁slave	-11.2083
ave	-11.2086
▁replacement	-11.2095
ran	-11.2099
▁pendrive	-11.2099
▁schedule	-11.2099
land	-11.21
▁unmounted	-11.2106
vf	-11.2107
ify	-11.2117
▁nicely	-11.2117
▁des	-11.2124
view	-11.2125
▁loopback	-11.214
▁xxx	-11.2149
▁logitech	-11.2155
lock	-11.2159
▁marked	-11.2162
▁remind	-11.2164
wm	-11.2167
▁concerned	-11.2168
▁packagename	-11.2169
group	-11.2175
▁jdk	-11.2178
▁creative	-11.218
▁mmm	-11.2182
▁trace	-11.2183
▁blinking	-11.2187
▁blkid	-11.2188
cur	-11.2188
ature	-11.219
▁express	-11.2201
setup	-11.2201
▁prior	-11.2204
05	-11.221
how	-11.222
▁ev	-11.2232
▁ri	-11.2236
▁extracted	-11.2238
▁hum	-11.224
▁conversation	-11.2244
06	-11.2246
fu	-11.2247
▁lie	-11.2249
ization	-11.2256
▁windoze	-11.226
init	-11.226
▁cc	-11.2261
▁symbol	-11.2265
▁wake	-11.227
▁song	-11.2272
▁frame	-11.2272
▁render	-11.2272
▁jpg	-11.2277
▁lightdm	-11.2285
ace	-11.2287
▁oneiric	-11.2293
tra	-11.23
▁dvi	-11.2305
ons	-11.2309
▁brightness	-11.2309
▁duo	-11.2315
▁approach	-11.2317
▁compaq	-11.2326
side	-11.2334
▁thumb	-11.2334
18	-11.2334
▁hex	-11.234
▁worst	-11.2342
▁displayed	-11.2343
support	-11.2349
▁defrag	-11.2349
▁excuse	-11.235
bu	-11.2352
▁surprised	-11.2356
ore	-11.2358
▁priority	-11.2359
▁xbox	-11.2366
▁colors	-11.2367
▁dialup	-11.2368
▁rates	-11.2368
▁dosent	-11.2369
▁jar	-11.2369
har	-11.2369
▁str	-11.2375
mu	-11.2377
▁pan	-11.2382
▁merge	-11.2382
▁inspiron	-11.2383
ep	-11.2383
900	-11.2395
ome	-11.2397
▁flags	-11.2398
42	-11.2401
plug	-11.2406
▁syn	-11.2407
▁spare	-11.2409
▁plymouth	-11.2416
▁procedure	-11.2416
▁mkfs	-11.2416
▁viruses	-11.2429
▁idle	-11.2431
▁behavior	-11.2432
61	-11.2435
▁acces	-11.2438
▁imap	-11.2439
▁segfault	-11.2441
▁april	-11.2441
press	-11.2443
necessarily	-11.2449
▁frostwire	-11.2449
▁dirs	-11.2454
▁awn	-11.246
sda	-11.2466
▁temporary	-11.2482
ther	-11.2485
▁harder	-11.2486
ock	-11.2489
▁secondary	-11.2494
▁brings	-11.2499
▁arguments	-11.2501
▁vt	-11.2503
▁webpage	-11.2504
▁harm	-11.2508
▁preference	-11.2512
▁pops	-11.2517
▁letter	-11.2517
▁clarify	-11.2524
wo	-11.2526
▁fn	-11.253
07	-11.2539
▁types	-11.2548
▁til	-11.2549
▁strace	-11.2555
▁lazy	-11.2557
ea	-11.256
▁pasting	-11.2569
▁letting	-11.2571
▁faq	-11.2583
▁gw	-11.2585
ven	-11.2589
▁audacious	-11.2591
▁respect	-11.2591
▁context	-11.2591
23	-11.2592
▁probs	-11.2592
▁hardly	-11.2593
rus	-11.2609
▁forced	-11.2616
▁outputs	-11.2619
▁froze	-11.262
▁workspace	-11.2625
partition	-11.2631
edit	-11.2631
▁escape	-11.2633
77	-11.264
▁rarely	-11.2644
fwcutter	-11.2645
▁neat	-11.2645
▁scrolling	-11.2648
98	-11.265
▁ignor	-11.2652
backup	-11.2655
▁ht	-11.2655
▁oc	-11.2658
▁#1	-11.266
▁provider	-11.266
▁ye	-11.2661
ang	-11.2662
▁explanation	-11.2666
power	-11.2673
ime	-11.2675
▁compizconfig	-11.2679
▁songs	-11.2683
▁pu	-11.2684
▁offline	-11.2688
▁tablet	-11.269
▁kernal	-11.2692
force	-11.2693
▁position	-11.27
▁resolv	-11.2703
▁encountered	-11.2704
▁responding	-11.2706
▁examples	-11.2709
update	-11.2711
▁typically	-11.2712
scan	-11.2719
▁dep	-11.272
▁alternatives	-11.2723
fb	-11.2734
regardless	-11.2735
▁tra	-11.2737
pg	-11.2742
▁symbolic	-11.2744
28	-11.2753
▁ubu	-11.2754
▁pressed	-11.2754
▁minimum	-11.276
▁amazing	-11.276
▁attack	-11.276
lk	-11.2768
▁horrible	-11.2768
▁reiserfs	-11.2771
▁among	-11.2776
ko	-11.2778
supplicant	-11.2785
▁candidate	-11.2785
▁ata	-11.2787
▁wrapper	-11.2789
▁handles	-11.2803
deb	-11.2806
▁pppoe	-11.2808
▁story	-11.2811
▁runtime	-11.2812
▁fri	-11.2814
▁notes	-11.2817
▁accidentally	-11.2829
▁evil	-11.283
hin	-11.2832
put	-11.2836
laptop	-11.2842
nce	-11.2842
21	-11.285
▁tu	-11.2857
▁hte	-11.2871
▁attitude	-11.2871
▁fx	-11.2874
ok	-11.2879
▁sequence	-11.288
▁deluge	-11.288
▁bookmarks	-11.2884
jo	-11.2887
right	-11.2899
installing	-11.2905
▁!!!!	-11.2906
▁verified	-11.2906
000	-11.2907
▁permanent	-11.2909
▁described	-11.2911
▁country	-11.2916
▁preferred	-11.2916
▁patient	-11.2923
▁sarge	-11.2923
▁cost	-11.2925
main	-11.2925
▁detects	-11.293
▁locks	-11.2931
▁cycle	-11.2932
cha	-11.2933
fact	-11.2936
du	-11.2938
▁differences	-11.294
▁irq	-11.2942
▁sad	-11.2945
▁goto	-11.2955
▁aiglx	-11.2958
▁packaged	-11.2964
hy	-11.2964
▁jockey	-11.2976
▁bi	-11.2981
▁holding	-11.2986
▁sis	-11.299
▁backing	-11.2991
▁heron	-11.2998
dia	-11.2999
tle	-11.3
▁passphrase	-11.3002
▁adress	-11.3007
▁matters	-11.301
▁kidding	-11.3011
▁dualboot	-11.3015
▁capable	-11.3021
lite	-11.3022
▁round	-11.3024
dos	-11.3027
ire	-11.3033
▁ou	-11.3035
▁audigy	-11.3037
▁topics	-11.3049
▁xfree	-11.3049
▁tutorials	-11.3057
▁accessible	-11.3061
▁ayuda	-11.3063
cent	-11.3063
▁cho	-11.3063
▁1-	-11.3064
wer	-11.3068
▁structure	-11.3072
▁reduce	-11.3073
serv	-11.3075
▁eat	-11.3081
ified	-11.3081
▁mask	-11.3094
▁creator	-11.3103
▁latter	-11.3107
▁losing	-11.3109
▁rights	-11.3111
ins	-11.3118
▁assumed	-11.312
gh	-11.312
▁slowly	-11.3126
var	-11.3134
▁paper	-11.3135
810	-11.3135
▁.......	-11.3136
▁gid	-11.314
ops	-11.3144
▁stopping	-11.3146
ically	-11.3148
▁readable	-11.3149
▁headset	-11.3154
▁suggests	-11.3155
cy	-11.3161
ude	-11.3163
▁originally	-11.3166
with	-11.3167
▁proftpd	-11.317
text	-11.3171
▁sum	-11.3172
▁unlikely	-11.3172
▁differently	-11.3174
▁metapackage	-11.3181
▁speeds	-11.3194
▁joke	-11.3195
▁reconnect	-11.3196
▁centre	-11.3196
▁quake	-11.3197
▁quote	-11.3203
▁mencoder	-11.3205
▁node	-11.3207
▁mobility	-11.3214
▁puts	-11.3216
▁grey	-11.3224
▁extras	-11.3231
▁""	-11.3232
▁equal	-11.3232
▁spanish	-11.3232
▁damage	-11.3233
▁backtrack	-11.3236
aly	-11.3238
▁wall	-11.3243
▁attach	-11.3245
▁ifdown	-11.3249
▁13	-11.3257
▁died	-11.3266
▁solid	-11.3268
▁advantage	-11.3275
▁composite	-11.3277
▁face	-11.3278
▁involved	-11.3278
clock	-11.3281
▁fake	-11.3281
▁bars	-11.3282
▁navigate	-11.3288
▁gnomebaker	-11.3295
▁safely	-11.3303
▁sshfs	-11.3304
▁upper	-11.3305
▁heavy	-11.3313
▁bout	-11.3314
▁noapic	-11.3322
▁badly	-11.3322
nc	-11.3323
sudo	-11.3328
▁opensource	-11.3334
▁anyhow	-11.3338
02	-11.3346
html	-11.3347
▁autodetect	-11.335
some	-11.335
▁elsewhere	-11.3351
ban	-11.3363
▁mirrors	-11.3364
ssh	-11.3368
▁query	-11.3368
ley	-11.3378
▁associated	-11.3381
▁led	-11.3382
▁choosing	-11.3394
▁persistent	-11.3395
▁levels	-11.3396
▁interest	-11.3397
▁frequency	-11.3403
▁calling	-11.3408
val	-11.3409
400	-11.3409
drivers	-11.3413
▁wh	-11.3418
▁five	-11.3419
ctl	-11.3422
▁damaged	-11.3429
bc	-11.3431
▁author	-11.3432
▁sendmail	-11.3433
▁unload	-11.3435
uch	-11.3438
▁completion	-11.3438
ward	-11.3445
xr	-11.3451
▁depth	-11.3456
▁visudo	-11.3459
▁explained	-11.3461
ces	-11.3462
zip	-11.3463
▁translate	-11.3467
26	-11.3467
iti	-11.3468
▁positive	-11.3476
▁pae	-11.3483
rid	-11.3485
▁wha	-11.3487
▁micro	-11.3487
▁spin	-11.3489
▁removable	-11.3489
▁finds	-11.349
▁possibility	-11.3495
auth	-11.3497
▁duplicate	-11.3503
1200	-11.3504
▁tasks	-11.3508
head	-11.3511
hardware	-11.3512
ium	-11.3512
chat	-11.3514
▁nvm	-11.352
ssing	-11.3522
vert	-11.3522
▁suggesting	-11.3524
download	-11.3531
oh	-11.3531
now	-11.3541
▁tonight	-11.3546
▁mandrake	-11.355
ten	-11.3552
▁aint	-11.3553
▁unpack	-11.3556
▁mandriva	-11.3559
▁vsftpd	-11.3559
▁slider	-11.356
▁sensors	-11.3565
▁waht	-11.3565
▁themselves	-11.3568
▁freezing	-11.3568
▁uncheck	-11.357
▁sudden	-11.3573
▁acting	-11.3584
audio	-11.3595
eb	-11.3596
▁feed	-11.3604
▁recommendation	-11.3606
▁behave	-11.3612
▁illegal	-11.3624
▁tri	-11.3625
▁sometime	-11.3626
▁experiment	-11.3627
▁symlinks	-11.3639
▁guarantee	-11.3643
gy	-11.3644
▁aswell	-11.365
▁ubuntuforums	-11.3651
▁dang	-11.3651
▁presume	-11.3652
▁body	-11.3654
▁successful	-11.3658
properties	-11.366
ors	-11.3661
ement	-11.3666
▁transparent	-11.3666
▁konsole	-11.3671
iz	-11.3674
▁cou	-11.368
▁encoding	-11.368
iso	-11.3681
▁ouch	-11.3683
▁occur	-11.3688
▁clues	-11.3692
pre	-11.3694
▁squid	-11.3699
▁deep	-11.3703
▁upstream	-11.3703
ws	-11.3709
tv	-11.3715
local	-11.3727
▁cairo	-11.3727
burn	-11.3727
▁popup	-11.373
▁ahve	-11.3732
▁price	-11.3733
ense	-11.3736
▁deps	-11.3737
▁global	-11.3747
55	-11.3747
▁maintain	-11.3752
▁elaborate	-11.3755
own	-11.3755
mark	-11.3758
▁:"	-11.3764
▁buddy	-11.3765
▁mass	-11.3765
▁steam	-11.3768
ory	-11.3768
live	-11.3772
▁tor	-11.3777
▁wil	-11.3783
▁requirements	-11.3787
rea	-11.3787
▁happend	-11.379
nvidia	-11.3793
password	-11.3793
08	-11.3795
▁xv	-11.3795
ability	-11.3797
95	-11.3803
ftp	-11.3804
-386	-11.3808
09	-11.381
▁spell	-11.381
directory	-11.3811
▁copies	-11.3822
▁netmask	-11.3822
▁hassle	-11.3833
▁png	-11.3837
▁activity	-11.384
▁broadband	-11.384
▁ubunto	-11.3841
▁lately	-11.3841
▁pwd	-11.3843
▁freenx	-11.385
43-	-11.3853
▁dies	-11.3861
52	-11.3864
▁oppose	-11.3866
error	-11.3868
▁ooh	-11.3868
▁ass	-11.3869
▁entering	-11.3874
▁bye	-11.3879
▁256	-11.3881
▁aspire	-11.3888
▁taht	-11.3888
▁backend	-11.3895
wi	-11.3896
▁cell	-11.3897
▁lappy	-11.3917
▁detailed	-11.3921
ient	-11.3925
backports	-11.3927
3945	-11.3927
▁junk	-11.393
▁grow	-11.393
▁removal	-11.3933
fsck	-11.3933
▁":	-11.3936
▁clamav	-11.3936
▁reliable	-11.3936
82	-11.3938
▁flashing	-11.3942
▁forwarded	-11.3942
▁choices	-11.3948
▁mixed	-11.395
dc	-11.395
vers	-11.3955
▁pad	-11.3961
▁reporting	-11.3964
▁dongle	-11.3966
▁debugging	-11.3966
▁unsure	-11.3966
que	-11.3966
▁nx	-11.3969
help	-11.3971
2200	-11.3977
▁early	-11.3979
ren	-11.3981
▁ikonia	-11.3984
▁advance	-11.3987
▁warnings	-11.3988
uc	-11.399
▁technical	-11.3993
14	-11.4005
theme	-11.4005
66	-11.4012
▁xinerama	-11.4013
▁joy	-11.402
▁awhile	-11.4032
▁nasty	-11.4033
90	-11.4041
gan	-11.4043
▁screenshots	-11.4046
▁brough	-11.4049
▁lab	-11.405
▁beginner	-11.4052
▁cons	-11.4056
▁api	-11.4065
updates	-11.4066
▁noone	-11.4068
▁blind	-11.4071
lp	-11.4073
▁backspace	-11.4073
▁outdated	-11.4081
board	-11.4082
xp	-11.4082
▁prolly	-11.4082
▁picked	-11.4083
▁minor	-11.4086
▁verbose	-11.4101
▁----	-11.4104
▁technology	-11.411
▁guidelines	-11.411
▁vague	-11.411
▁libgl	-11.4115
▁protect	-11.4117
▁optical	-11.412
▁claim	-11.4123
▁posting	-11.4124
mate	-11.4128
▁commercial	-11.413
▁gdesklets	-11.4135
cat	-11.4136
address	-11.4138
▁variables	-11.4138
▁manufacturer	-11.414
doc	-11.4142
▁19	-11.4143
▁tag	-11.4144
▁meh	-11.4146
▁fly	-11.4151
▁theory	-11.4151
www	-11.4151
ai	-11.4152
profile	-11.4153
str	-11.416
▁posts	-11.4164
▁confuse	-11.4167
ily	-11.417
▁blame	-11.4173
▁tough	-11.4179
▁mx	-11.4181
▁sha	-11.4183
ught	-11.4185
struct	-11.4186
▁arg	-11.4186
▁mom	-11.4189
▁tons	-11.4195
▁mpg	-11.4199
machine	-11.42
▁critical	-11.42
▁writes	-11.4212
▁strong	-11.4216
▁realized	-11.422
-4	-11.4221
▁recognise	-11.4222
stop	-11.4232
▁highly	-11.4234
▁devs	-11.4235
▁partitioned	-11.4235
▁practice	-11.4238
▁replacing	-11.424
▁thr	-11.4242
▁hah	-11.4246
▁partner	-11.4252
▁passed	-11.4253
51	-11.4254
▁argh	-11.4256
▁closing	-11.4258
▁executing	-11.4258
▁submit	-11.4258
▁managers	-11.4259
▁logon	-11.4261
▁experienc	-11.4262
▁wind	-11.4263
▁wizard	-11.4268
▁android	-11.4268
phone	-11.4276
▁terrible	-11.4278
▁bill	-11.4281
▁expecting	-11.4281
place	-11.4281
your	-11.4282
nch	-11.4288
▁nero	-11.4291
▁usermod	-11.4299
ded	-11.4299
login	-11.43
▁volumes	-11.4301
▁claims	-11.4305
▁updatedb	-11.431
technologies	-11.4318
raid	-11.4325
▁concept	-11.4328
▁stated	-11.4336
den	-11.4338
▁inserted	-11.4346
▁authenticate	-11.4348
▁ten	-11.4352
▁simpler	-11.4353
▁dedicated	-11.4358
▁everywhere	-11.4359
folder	-11.4369
uff	-11.4375
▁util	-11.4377
▁xbmc	-11.4378
aw	-11.438
ments	-11.4381
unt	-11.4381
▁pam	-11.4387
▁partitioner	-11.4395
▁methods	-11.441
▁breaking	-11.4413
▁nickserv	-11.4417
▁archives	-11.4419
▁tracker	-11.442
▁indicate	-11.4422
▁maximum	-11.4428
▁ldap	-11.4432
▁comfortable	-11.4438
nk	-11.4445
▁vanilla	-11.4448
ich	-11.4448
▁gs	-11.445
▁sli	-11.4455
▁subject	-11.4458
▁xx	-11.4459
▁customize	-11.4461
▁combo	-11.4461
▁utorrent	-11.4462
crypt	-11.4467
▁puppy	-11.4469
▁literally	-11.447
cast	-11.447
▁received	-11.4477
▁qui	-11.4477
▁vb	-11.4497
▁ekiga	-11.4499
▁detecting	-11.45
daemon	-11.4501
browser	-11.4501
▁aside	-11.4502
▁14	-11.4509
▁average	-11.4509
▁charge	-11.4513
▁headphone	-11.4514
command	-11.4516
tree	-11.4516
air	-11.4519
▁bur	-11.4528
48	-11.4537
ular	-11.4539
▁temperature	-11.454
▁fb	-11.4545
▁french	-11.455
google	-11.4552
▁prompts	-11.4558
85	-11.4559
▁aye	-11.4564
▁repartition	-11.4571
▁exc	-11.4572
▁ub	-11.4574
▁journal	-11.4576
▁stack	-11.4582
▁completed	-11.4582
▁tb	-11.4584
▁belive	-11.4585
▁tricky	-11.4593
wise	-11.46
synaptic	-11.4604
▁evening	-11.4604
▁prints	-11.4608
▁allowing	-11.4611
▁greyed	-11.4613
▁buying	-11.4615
▁har	-11.4617
▁permanently	-11.4618
▁tune	-11.4619
▁drops	-11.4621
▁anti	-11.4621
▁emails	-11.4623
▁instances	-11.4635
▁checks	-11.4636
▁cur	-11.4642
hal	-11.4647
ris	-11.465
think	-11.466
▁chinese	-11.4663
▁million	-11.4663
▁persist	-11.4663
▁sorted	-11.4664
change	-11.4668
▁ibex	-11.4674
wireless	-11.4676
▁locking	-11.4677
-686	-11.4679
▁swear	-11.4684
▁netgear	-11.4684
▁newly	-11.4698
ink	-11.4698
username	-11.4701
▁mailing	-11.4701
▁ghost	-11.4706
▁plugging	-11.4706
▁rec	-11.4706
tom	-11.4707
▁flo	-11.471
ana	-11.4711
ution	-11.4712
word	-11.4713
format	-11.4714
▁instruction	-11.472
ised	-11.4721
nat	-11.473
ail	-11.474
▁modern	-11.4761
pm	-11.4761
▁applets	-11.4764
▁prove	-11.4766
▁mirc	-11.4775
▁hundred	-11.4777
▁maintainer	-11.4782
▁essentially	-11.4782
cdrom	-11.4782
▁allready	-11.4787
▁recognizes	-11.4791
▁pointless	-11.4799
▁hole	-11.4799
▁disappear	-11.4801
▁cables	-11.4801
▁constantly	-11.4801
lying	-11.4804
▁lookup	-11.4808
▁agreed	-11.4808
▁texts	-11.481
▁128	-11.4812
uname	-11.4815
ser	-11.4818
▁gpt	-11.482
ext	-11.4821
process	-11.4822
▁parent	-11.4825
adly	-11.4826
▁basics	-11.4828
▁whi	-11.4839
nl	-11.4852
▁attempted	-11.4853
ux	-11.4855
that	-11.486
▁tht	-11.4861
▁remain	-11.4866
kde	-11.4877
bsd	-11.488
▁stability	-11.4882
▁obtain	-11.4882
▁ralink	-11.4883
apache	-11.4885
▁rtl	-11.4885
▁fight	-11.4886
▁frustrating	-11.4893
users	-11.4893
▁reasonable	-11.4904
dr	-11.4907
88	-11.4912
any	-11.4922
▁animation	-11.4924
▁locales	-11.4925
▁functions	-11.4928
▁lights	-11.4928
▁compar	-11.4931
▁states	-11.4934
▁17	-11.4934
▁fingers	-11.4941
▁yu	-11.4943
▁iphone	-11.4952
▁programmer	-11.4955
▁thousand	-11.4956
volume	-11.496
▁guru	-11.4961
▁tru	-11.4965
▁segmentation	-11.4967
▁favorite	-11.4967
lig	-11.4969
▁oracle	-11.4977
web	-11.4978
hr	-11.498
96	-11.4984
▁mhz	-11.4986
▁untill	-11.4987
sensors	-11.4992
▁disappeared	-11.4999
▁ought	-11.5001
▁pinging	-11.5002
size	-11.5003
▁portable	-11.5004
▁bak	-11.5007
▁sizes	-11.5007
▁garbage	-11.5009
fglrx	-11.5014
▁perms	-11.5018
▁admit	-11.5022
▁offers	-11.5025
ics	-11.5026
▁physically	-11.5027
mal	-11.5033
▁glibc	-11.5033
▁tests	-11.5036
▁accident	-11.5047
▁rotate	-11.5053
ax	-11.5054
▁explorer	-11.506
hu	-11.5063
▁pos	-11.5078
iate	-11.508
▁sensitive	-11.5085
▁checkbox	-11.509
▁unusual	-11.5095
35	-11.51
enable	-11.5101
▁checksum	-11.5105
▁maximize	-11.5106
▁aka	-11.5107
▁conflicts	-11.5118
nu	-11.5123
▁hands	-11.5128
▁smbclient	-11.5129
inst	-11.5135
▁lighter	-11.5136
▁biggest	-11.5139
▁benefit	-11.5147
stream	-11.5149
▁recieve	-11.5149
gn	-11.5155
▁headache	-11.516
technically	-11.5162
▁wheel	-11.5163
▁connectivity	-11.5171
blacklist	-11.5176
▁gpl	-11.5182
▁prompted	-11.5184
▁workspaces	-11.5187
▁realy	-11.5188
▁gzip	-11.5192
▁kopete	-11.5193
flash	-11.5198
libs	-11.5203
▁paid	-11.5206
▁compressed	-11.5214
▁sorta	-11.5215
▁thi	-11.5219
38	-11.5221
▁bound	-11.5221
ppp	-11.5226
▁forth	-11.5233
copy	-11.5235
▁dropping	-11.5238
▁shutting	-11.5239
▁=>	-11.5242
▁samsung	-11.5247
▁demo	-11.5248
ould	-11.5249
gate	-11.5251
▁.........	-11.5252
bash	-11.5254
even	-11.5255
▁!"	-11.5258
▁production	-11.526
dock	-11.5264
▁rocks	-11.5266
ez	-11.5266
▁sysv	-11.5267
▁wl	-11.527
ves	-11.5278
▁tables	-11.5286
ora	-11.5287
31	-11.5291
▁sentence	-11.5293
ane	-11.5294
▁paths	-11.5299
▁canon	-11.5304
▁fac	-11.5307
oe	-11.531
▁hosting	-11.5312
▁gtkpod	-11.5313
▁wiped	-11.5317
▁scripting	-11.5318
touch	-11.5322
ways	-11.5325
phigh	-11.5325
▁kinds	-11.5327
▁mistaken	-11.5337
▁blender	-11.5346
▁square	-11.5346
▁halt	-11.535
▁modeline	-11.535
▁assistance	-11.5358
▁freak	-11.5365
▁unexpected	-11.5369
▁capabilitie	-11.5369
vid	-11.537
mad	-11.538
▁adept	-11.5381
del	-11.5388
▁ship	-11.539
▁null	-11.5394
▁flannel	-11.5402
▁lightweight	-11.5402
▁reboots	-11.5403
monitor	-11.5408
46	-11.5411
▁purposes	-11.5412
▁scheme	-11.5413
▁gvfs	-11.5424
icon	-11.5429
flood	-11.543
▁suit	-11.5434
▁driving	-11.5435
9660	-11.5435
▁identifier	-11.5438
ata	-11.5443
figuring	-11.5444
▁fc	-11.5449
selections	-11.5452
▁filenames	-11.5454
▁medium	-11.5458
▁kno	-11.5458
▁htop	-11.546
repository	-11.5464
mission	-11.5464
▁fil	-11.5469
▁stands	-11.5475
rag	-11.5475
▁recorder	-11.5478
▁choppy	-11.548
oz	-11.5482
▁homepage	-11.5482
▁develop	-11.5486
▁ment	-11.5487
▁dad	-11.5487
ong	-11.5489
▁pause	-11.5493
ration	-11.5496
▁stu	-11.55
▁edubuntu	-11.5504
=1000	-11.5506
ao	-11.5514
▁lease	-11.5514
archive	-11.5521
▁requested	-11.5521
▁jrib	-11.5525
▁troll	-11.5527
built	-11.5528
▁lang	-11.553
wn	-11.5531
▁snapshot	-11.5531
▁exception	-11.5542
▁eyes	-11.5544
▁geek	-11.5549
espite	-11.5559
▁heres	-11.5561
▁hfs	-11.5564
▁review	-11.5574
▁doesn	-11.5575
pos	-11.5577
nder	-11.5579
▁purple	-11.5581
▁vertical	-11.5582
▁jobs	-11.5585
▁fin	-11.5587
-10	-11.5591
▁ke	-11.5596
ius	-11.5598
mar	-11.5598
▁writable	-11.56
▁fool	-11.5603
▁obsolete	-11.5604
▁hehehe	-11.5605
▁recursive	-11.561
▁accelerated	-11.5615
something	-11.5623
▁sufficient	-11.5627
▁compress	-11.5627
▁truecrypt	-11.5628
▁ktorrent	-11.5629
▁strip	-11.5629
row	-11.5632
ole	-11.5633
▁scared	-11.5634
hhhh	-11.5636
▁hahaha	-11.5639
ture	-11.564
page	-11.564
▁........	-11.5648
▁treat	-11.5652
connect	-11.5652
▁toolbar	-11.5653
▁investigate	-11.5659
▁punctuation	-11.5661
▁zone	-11.5664
▁jordan	-11.5672
pping	-11.5677
ctrl	-11.568
bug	-11.5682
▁grant	-11.5686
▁tuner	-11.5693
▁reg	-11.5696
▁comand	-11.57
▁chips	-11.5702
▁ingl	-11.5703
▁permitted	-11.5707
ched	-11.5709
▁dan	-11.5712
▁proberly	-11.5718
ently	-11.5719
▁cru	-11.5722
▁pic	-11.5724
▁improve	-11.573
▁quad	-11.573
▁crypt	-11.5739
stall	-11.5749
▁quicker	-11.575
▁?...	-11.5751
▁abort	-11.5753
▁drm	-11.5755
▁addr	-11.5757
▁nicer	-11.5772
hack	-11.5778
▁false	-11.5784
▁converting	-11.5787
▁signature	-11.5788
▁midi	-11.5798
▁saves	-11.5798
▁unmet	-11.5799
whatever	-11.5807
73	-11.5809
▁flv	-11.5814
▁cn	-11.5817
▁supply	-11.582
ral	-11.582
▁convince	-11.5822
▁hints	-11.5827
▁qua	-11.5831
phy	-11.5832
▁exclude	-11.5833
▁impression	-11.5845
▁cold	-11.5846
▁ubuntuguide	-11.5847
▁acts	-11.5851
▁dirty	-11.5852
▁unusable	-11.5857
▁searches	-11.5858
▁belong	-11.5859
uitable	-11.5868
▁applied	-11.5868
▁blog	-11.5871
▁swat	-11.5874
▁centos	-11.588
men	-11.5882
domain	-11.5889
▁insist	-11.5894
▁libgtk	-11.5895
▁safer	-11.59
▁installable	-11.5901
modem	-11.5908
▁photo	-11.591
1_	-11.591
▁october	-11.5915
▁student	-11.5915
▁formated	-11.5917
▁va	-11.5918
▁dealing	-11.5927
active	-11.5938
▁emulate	-11.5939
▁essential	-11.5939
▁yer	-11.594
cial	-11.5941
▁vers	-11.5944
▁unmute	-11.5957
▁unr	-11.5958
▁disagree	-11.5962
▁macs	-11.5964
pass	-11.5964
▁scaling	-11.5974
▁market	-11.5976
▁redo	-11.598
34	-11.5983
za	-11.5988
mic	-11.5988
▁uhh	-11.5989
▁keyserver	-11.5991
▁ummm	-11.5993
▁factor	-11.5994
▁opt	-11.5995
▁functional	-11.5995
▁moves	-11.5999
▁mentions	-11.6
▁hdc	-11.6002
detect	-11.6004
▁comm	-11.6004
▁encode	-11.6007
▁languages	-11.6009
▁nforce	-11.6009
▁sections	-11.6011
▁burnt	-11.6016
▁attempts	-11.6019
▁bra	-11.6024
xxx	-11.603
▁surround	-11.6033
▁18	-11.6038
▁ibook	-11.604
▁tnx	-11.6057
▁massive	-11.6057
▁yw	-11.6059
have	-11.6059
▁unbuntu	-11.606
▁nics	-11.6063
▁okey	-11.6065
▁incoming	-11.6066
▁sick	-11.6067
▁variant	-11.6068
▁superuser	-11.6071
▁faulty	-11.6073
eth	-11.6076
▁fro	-11.6086
▁connector	-11.6089
standard	-11.609
mor	-11.609
ced	-11.6094
ually	-11.6095
▁ndis	-11.6096
▁boo	-11.6106
▁colour	-11.6111
▁ea	-11.6112
▁poke	-11.6113
but	-11.6113
▁mother	-11.6114
▁trivial	-11.6116
▁hmmmm	-11.6118
▁dv	-11.6119
▁events	-11.6123
▁hacking	-11.6123
▁child	-11.6128
▁nuts	-11.6129
ities	-11.6136
▁adds	-11.6139
▁embedded	-11.614
▁charm	-11.6147
▁counter	-11.6152
▁vino	-11.6158
▁sends	-11.6159
▁tx	-11.6161
site	-11.6162
▁viewing	-11.6162
▁debootstrap	-11.6164
len	-11.6165
▁rh	-11.6168
▁detection	-11.617
switch	-11.6174
▁insane	-11.6176
hen	-11.6178
76	-11.6185
▁opensuse	-11.6189
▁components	-11.6192
▁xdm	-11.6193
▁promise	-11.62
▁eeepc	-11.6201
▁requests	-11.6202
▁"..	-11.6205
99	-11.6205
▁22	-11.6208
couse	-11.6214
':	-11.6218
▁holy	-11.6218
output	-11.6224
thign	-11.6224
▁banned	-11.6236
▁wacom	-11.624
▁experimental	-11.6249
fo	-11.6249
▁belkin	-11.6256
▁intended	-11.6258
ifi	-11.6258
▁packaging	-11.626
▁protection	-11.6263
program	-11.627
▁utilities	-11.6273
▁retry	-11.6275
▁pri	-11.6277
byte	-11.6281
hm	-11.6284
war	-11.6291
med	-11.6297
▁libx	-11.6302
▁cap	-11.6304
▁untar	-11.6312
irc	-11.6317
▁rerun	-11.6325
/*	-11.6328
▁blacklisted	-11.6332
ative	-11.6332
▁unplugged	-11.6334
▁sigh	-11.6335
what	-11.6343
▁differnt	-11.6347
▁loud	-11.6348
▁pattern	-11.6358
▁helper	-11.6358
▁scale	-11.6365
▁mil	-11.6382
▁override	-11.6382
kin	-11.6383
▁udp	-11.6383
▁explicitly	-11.6384
▁flat	-11.6392
▁bots	-11.6393
▁fear	-11.64
ind	-11.6401
▁sticks	-11.6414
▁tightvnc	-11.6419
▁curiosity	-11.6431
▁resolved	-11.6432
▁est	-11.6434
▁suite	-11.6434
kill	-11.6438
stra	-11.645
▁tweaking	-11.6455
block	-11.6456
ming	-11.6458
▁xev	-11.6458
▁extreme	-11.646
▁diagnose	-11.6462
123	-11.6463
▁src	-11.6464
▁dat	-11.6465
▁lid	-11.647
▁keyword	-11.6471
▁httpd	-11.6472
▁vaio	-11.6472
opt	-11.6473
oooo	-11.6478
▁mixing	-11.6481
▁hor	-11.6486
▁pixel	-11.6488
▁occurs	-11.6492
▁vncviewer	-11.6494
▁bugzilla	-11.6494
▁hy	-11.6494
▁overwritten	-11.6494
stat	-11.6494
▁cy	-11.6496
cept	-11.6503
swap	-11.6507
▁horizontal	-11.6518
▁emulation	-11.6518
▁ich	-11.6519
▁befor	-11.6521
▁pair	-11.6521
▁zen	-11.6534
iff	-11.6535
▁migrate	-11.6538
display	-11.6542
▁expensive	-11.6543
▁patched	-11.6545
▁rewrite	-11.655
nal	-11.6551
cess	-11.6553
▁unit	-11.6554
▁frustrated	-11.6568
▁exchange	-11.6568
guy	-11.6572
▁restarts	-11.6579
▁supporting	-11.6579
▁hola	-11.658
enc	-11.6582
▁rude	-11.6585
▁300	-11.6585
▁vps	-11.6586
▁deny	-11.6586
▁logic	-11.6592
▁bazhang	-11.6593
▁divx	-11.6593
▁jus	-11.66
pu	-11.6601
▁xargs	-11.6605
▁extend	-11.6608
▁90	-11.6615
▁kicked	-11.6616
▁rofl	-11.6618
ection	-11.6622
▁discovered	-11.6629
▁howdy	-11.6629
▁rephrase	-11.6631
▁interpret	-11.6635
59	-11.6637
▁fd	-11.664
▁mapping	-11.6644
mmmm	-11.6655
▁supp	-11.6667
▁rig	-11.6668
▁implementation	-11.6674
▁ear	-11.6675
xgl	-11.6676
max	-11.6679
▁forgotten	-11.6682
lined	-11.6683
▁corruption	-11.6685
mask	-11.669
▁wma	-11.6692
vc	-11.6694
▁beagle	-11.6694
pped	-11.6697
▁discover	-11.6697
▁nowhere	-11.67
should	-11.6702
▁coding	-11.6707
▁openjdk	-11.671
▁desired	-11.6714
▁shadow	-11.6715
▁alsaconf	-11.6717
▁youll	-11.6722
ency	-11.6731
▁ascii	-11.6732
▁sdl	-11.6735
▁sea	-11.6737
ific	-11.6738
dict	-11.6738
▁relative	-11.6742
▁unique	-11.6745
▁chatting	-11.6749
▁boost	-11.6757
▁realise	-11.6757
▁resort	-11.6757
▁printed	-11.6759
▁dear	-11.6767
▁absolute	-11.6769
▁reflect	-11.677
▁efi	-11.6784
▁boy	-11.6789
▁pkill	-11.6797
▁heat	-11.6813
▁limitation	-11.6814
▁cached	-11.6814
▁hibernation	-11.6821
▁facebook	-11.6821
▁bear	-11.6823
▁tbh	-11.6826
▁intend	-11.6826
▁vice	-11.6827
▁chkdsk	-11.6834
▁toggle	-11.6834
▁truth	-11.6835
37	-11.6844
▁smbpasswd	-11.6847
▁dice	-11.6849
pan	-11.6851
▁capital	-11.6859
▁libapache	-11.6861
▁duh	-11.6863
ftpd	-11.6867
uld	-11.6869
know	-11.6869
comp	-11.6871
▁hits	-11.6871
11-	-11.6871
level	-11.6875
gre	-11.6877
▁configurations	-11.6879
▁ending	-11.6881
▁highest	-11.6888
full	-11.6894
▁math	-11.6896
▁whichever	-11.6899
era	-11.69
▁held	-11.6902
▁ideal	-11.6904
und	-11.6907
▁pata	-11.6908
▁provid	-11.6916
▁bum	-11.6918
▁pref	-11.6922
proxy	-11.6922
▁doh	-11.6924
▁integrity	-11.6924
ung	-11.6927
▁ddr	-11.693
▁ow	-11.6934
hoc	-11.6935
▁carefully	-11.6938
??	-11.6941
▁professional	-11.695
▁sat	-11.6953
▁initialize	-11.696
▁cf	-11.6962
▁measure	-11.6963
rwx	-11.6971
▁shuts	-11.6972
▁lap	-11.6974
ker	-11.6975
▁university	-11.6976
▁timing	-11.6976
security	-11.6977
dns	-11.6977
▁websearch	-11.6977
▁cores	-11.6983
▁los	-11.6986
▁hotkey	-11.6994
36	-11.6998
▁hacker	-11.7003
▁handled	-11.7006
vv	-11.7006
▁mayor	-11.7008
▁accel	-11.7014
▁renaming	-11.7015
▁unused	-11.7015
▁insmod	-11.7016
alias	-11.7016
▁decrypt	-11.7016
▁ice	-11.7025
track	-11.703
een	-11.7032
▁forcing	-11.7032
▁weak	-11.7034
save	-11.7038
▁partimage	-11.704
▁parallel	-11.7041
▁wireshark	-11.7054
▁headless	-11.7057
▁javascript	-11.706
▁locations	-11.706
▁lil	-11.7062
▁liveusb	-11.7066
▁universal	-11.7067
▁solaris	-11.7067
▁skin	-11.7076
wire	-11.7086
▁chipsets	-11.7087
▁discs	-11.7088
▁syncing	-11.7093
▁decision	-11.7094
▁?:	-11.7094
▁six	-11.7097
▁chain	-11.7099
▁dc	-11.7105
▁dyndns	-11.7107
hhh	-11.7109
▁borders	-11.7116
ior	-11.7117
▁intelligent	-11.712
▁sql	-11.7128
▁college	-11.7133
▁flush	-11.7134
▁blu	-11.7135
▁switcher	-11.7141
▁pal	-11.7142
▁oct	-11.7144
▁bcmwl	-11.7146
▁enlightenment	-11.7147
mc	-11.7147
▁urls	-11.7148
bg	-11.7149
▁awk	-11.715
blo	-11.7155
arch	-11.7159
step	-11.7163
▁drwxr	-11.7165
▁mismatch	-11.7165
▁nas	-11.7166
▁gf	-11.7171
▁opti	-11.7172
▁orange	-11.7174
setting	-11.7174
▁picking	-11.7178
▁cont	-11.7184
▁libstdc	-11.7186
▁sample	-11.7186
gar	-11.7189
▁flux	-11.7195
▁rythmbox	-11.72
matic	-11.7201
▁wht	-11.7204
▁filled	-11.7212
▁applies	-11.7213
▁icewm	-11.7213
▁00:0	-11.7219
▁retrieve	-11.722
▁versa	-11.722
▁?..	-11.7221
▁23	-11.7222
ction	-11.7224
▁nonsense	-11.7226
▁law	-11.7226
errors	-11.723
▁cpus	-11.7237
57	-11.7239
▁qtparted	-11.724
▁renamed	-11.7243
▁antivirus	-11.7253
▁iwl	-11.7255
▁owns	-11.7256
▁easyubuntu	-11.7258
▁protected	-11.7265
▁definate	-11.7266
▁ubunut	-11.7267
▁oses	-11.7272
▁bookmark	-11.7274
▁launched	-11.7275
▁fans	-11.7278
ely	-11.7286
▁playlist	-11.7287
▁preserve	-11.729
▁controll	-11.7293
▁succeed	-11.7293
passwd	-11.7295
pid	-11.7296
**	-11.7298
devel	-11.7299
▁writer	-11.73
▁dcc	-11.7301
▁fre	-11.7302
foo	-11.7304
▁mpd	-11.7305
▁fastest	-11.7312
pen	-11.7312
▁eating	-11.7317
▁anytime	-11.7322
pear	-11.733
▁peer	-11.7331
▁addition	-11.7333
▁lenovo	-11.7333
▁firewire	-11.7334
▁fawn	-11.7335
wrap	-11.7336
▁99	-11.7346
cuase	-11.7347
▁accessed	-11.735
rad	-11.7359
ith	-11.7368
▁bare	-11.7373
▁avant	-11.7375
▁xmodmap	-11.7388
bots	-11.739
▁allocate	-11.7398
uk	-11.7401
▁unavailable	-11.7402
software	-11.7404
▁bon	-11.7406
▁guided	-11.7409
ken	-11.7411
splash	-11.7412
▁scary	-11.7415
▁fish	-11.7417
▁fucking	-11.7418
1000	-11.7423
▁xlib	-11.7431
▁bud	-11.7431
▁pointers	-11.7434
▁instant	-11.7437
▁indicates	-11.7437
▁flac	-11.7439
▁dnsmasq	-11.7442
where	-11.7445
fox	-11.7446
▁former	-11.7448
▁photos	-11.7448
grade	-11.745
cut	-11.7455
▁row	-11.7455
▁compression	-11.7457
04	-11.7467
ku	-11.7475
ove	-11.7475
▁uk	-11.748
sup	-11.7481
▁unreachable	-11.7483
▁stereo	-11.7497
▁secret	-11.7497
▁tex	-11.7504
▁codes	-11.7506
44	-11.7508
▁negative	-11.751
▁won	-11.7512
select	-11.7513
▁chris	-11.7513
81	-11.7514
▁communication	-11.7515
▁hacked	-11.7518
custom	-11.7541
▁netboot	-11.7544
▁popped	-11.7553
▁winamp	-11.7553
initramfs	-11.7555
2500	-11.7568
specific	-11.7571
▁mutt	-11.7572
itor	-11.7575
▁cisco	-11.7579
▁traceroute	-11.7579
ulation	-11.7586
from	-11.7589
▁.?	-11.7591
gue	-11.7594
▁portion	-11.7595
▁kicks	-11.7597
ath	-11.7598
▁stores	-11.7598
▁advised	-11.76
▁tftp	-11.7602
hh	-11.7604
▁sur	-11.7605
▁pulling	-11.7606
▁megs	-11.7609
▁aticonfig	-11.7614
▁reiser	-11.7616
▁gftp	-11.7625
▁filezilla	-11.7626
▁compositing	-11.7635
▁wvdial	-11.7635
bla	-11.7635
▁occasional	-11.7643
41	-11.7646
▁ball	-11.7649
150	-11.7651
▁logins	-11.7655
unk	-11.7661
▁struggl	-11.7662
▁beside	-11.7671
▁steal	-11.7677
▁alert	-11.7679
compatible	-11.768
▁gar	-11.769
▁sep	-11.7692
▁books	-11.7693
▁som	-11.7697
▁jumper	-11.77
▁ofcourse	-11.7704
▁(>=	-11.7705
▁conversion	-11.7705
▁secs	-11.7706
too	-11.771
▁wherever	-11.7712
▁evince	-11.7718
▁recomend	-11.7718
▁dmraid	-11.7719
▁laugh	-11.7719
▁station	-11.7726
▁environments	-11.7729
▁poll	-11.7731
▁fir	-11.7737
hoo	-11.7741
▁partial	-11.7747
▁rtorrent	-11.7748
ae	-11.7749
▁tryin	-11.7759
▁weather	-11.7762
▁silent	-11.7762
▁conflicting	-11.7765
▁inode	-11.7766
▁references	-11.7781
▁xvid	-11.7786
▁problematic	-11.7795
▁powerpc	-11.7795
ease	-11.7797
▁developed	-11.7802
▁identified	-11.7808
▁ctl	-11.781
▁js	-11.7811
▁converted	-11.7816
▁restrict	-11.7816
▁automate	-11.7816
▁responsibl	-11.7817
nic	-11.783
▁clonezilla	-11.7831
▁shop	-11.7855
▁pv	-11.7866
ans	-11.7867
▁cluster	-11.7874
▁spe	-11.7877
tions	-11.7889
▁supposedly	-11.789
▁filtering	-11.7892
▁confirmed	-11.7894
yes	-11.7895
mouse	-11.7901
▁coffee	-11.7902
▁shame	-11.7905
▁za	-11.7914
cam	-11.7917
shrug	-11.7917
▁ident	-11.7919
▁flashplayer	-11.7923
▁aah	-11.7924
▁reccomend	-11.7931
▁additions	-11.7937
▁significant	-11.7945
avi	-11.7948
▁hz	-11.7963
samba	-11.7965
▁wild	-11.7965
▁apologies	-11.7974
▁branch	-11.7974
▁standby	-11.7975
▁distributions	-11.7976
▁tap	-11.7978
▁remains	-11.7979
strike	-11.7987
▁cloud	-11.7988
▁processors	-11.7993
▁libqt	-11.7993
▁efficient	-11.7994
oy	-11.7997
eh	-11.8001
▁ridiculous	-11.8003
tail	-11.8003
found	-11.8003
▁netbeans	-11.8017
▁imac	-11.8018
ame	-11.8018
▁executables	-11.8019
▁shoudl	-11.8021
▁builds	-11.8024
▁gear	-11.8029
▁natively	-11.803
matches	-11.8031
▁benchmark	-11.8032
▁catalyst	-11.8032
dri	-11.8035
▁resized	-11.8035
▁appdb	-11.8038
▁volunteer	-11.8046
▁openvpn	-11.8048
▁cert	-11.8049
▁badger	-11.8054
▁implement	-11.8058
▁cpufreq	-11.8061
▁gah	-11.8067
aul	-11.8072
▁thunar	-11.8075
▁dying	-11.8076
mozilla	-11.8081
▁spelling	-11.8084
▁precisely	-11.8086
▁?????	-11.8095
▁warn	-11.8103
▁rdp	-11.8105
▁doens	-11.8107
▁heads	-11.8111
▁backwards	-11.8116
▁talks	-11.8118
▁diffrent	-11.8119
▁initially	-11.8121
delete	-11.8124
▁recogniz	-11.8126
▁proposed	-11.8127
▁demand	-11.8133
▁streams	-11.8136
▁trial	-11.8137
▁rely	-11.8137
▁udf	-11.8149
=000	-11.815
ppa	-11.8158
▁misunderstoo	-11.8163
▁graph	-11.8163
▁css	-11.8165
▁bell	-11.8165
ope	-11.8174
▁";	-11.8177
▁purchase	-11.8177
sis	-11.8184
▁marillat	-11.8186
▁gigabit	-11.8192
▁avahi	-11.8192
▁hosed	-11.8192
▁element	-11.8192
68	-11.8194
▁den	-11.8197
▁girl	-11.8202
▁dose	-11.8202
56	-11.8203
▁bypass	-11.8203
▁ecryptfs	-11.8207
▁gxine	-11.8212
▁yuo	-11.8219
▁rfkill	-11.8221
▁wirless	-11.8221
▁lmao	-11.8222
▁offered	-11.8224
▁flicker	-11.8236
▁lugins	-11.8244
▁hrmm	-11.8247
ula	-11.8252
▁officially	-11.8257
izer	-11.8258
71	-11.8261
▁tomcat	-11.8266
▁tcpdump	-11.8266
▁flip	-11.827
▁handl	-11.8272
▁accurate	-11.8281
▁exploit	-11.8281
ote	-11.8285
▁mike	-11.8288
▁adm	-11.8289
▁swf	-11.8291
nny	-11.8292
▁afford	-11.8295
▁spinning	-11.8296
▁od	-11.83
launch	-11.8302
inc	-11.8303
▁tcl	-11.8304
▁entra	-11.8323
▁slight	-11.8323
lot	-11.8323
▁gusty	-11.8325
▁tgz	-11.8325
▁yellow	-11.8325
vin	-11.8335
▁extracting	-11.8338
▁feedback	-11.834
▁dll	-11.8345
▁conn	-11.8347
▁usa	-11.8351
▁isos	-11.8353
▁pol	-11.8355
▁automated	-11.8358
▁disappears	-11.8361
▁aptoncd	-11.837
▁frank	-11.837
▁gather	-11.837
chi	-11.8374
fx	-11.8375
▁celeron	-11.8385
▁improvement	-11.8397
late	-11.8398
▁barely	-11.8407
rel	-11.8408
▁fucked	-11.8409
coming	-11.8409
▁curl	-11.8411
▁inserting	-11.8416
access	-11.8422
▁oem	-11.8425
▁ubunt	-11.8425
▁howtos	-11.8426
hooked	-11.8427
▁nickrud	-11.843
▁addons	-11.8432
▁virtualization	-11.8447
▁useradd	-11.8448
legacy	-11.8452
▁opposite	-11.846
freenode	-11.8467
▁bat	-11.8468
▁wonderful	-11.8472
▁degree	-11.8475
router	-11.8475
istic	-11.8477
roller	-11.848
ule	-11.8481
▁pla	-11.849
65	-11.849
▁automagically	-11.849
▁rare	-11.8491
▁tan	-11.8496
▁awful	-11.8502
▁kills	-11.8504
▁alacarte	-11.8505
▁glitch	-11.8505
▁ncurses	-11.8505
▁fakeraid	-11.8506
▁fuser	-11.8509
▁revision	-11.8512
▁editors	-11.8513
▁compat	-11.8513
▁chosen	-11.8519
▁subversion	-11.8522
fm	-11.8523
char	-11.8529
▁ec	-11.8535
▁satellite	-11.8536
29	-11.8537
▁typical	-11.8546
▁nslookup	-11.8551
ghz	-11.8557
▁ease	-11.8557
qua	-11.8563
▁binding	-11.8565
▁tracks	-11.8569
tech	-11.8573
▁lv	-11.8578
▁translation	-11.8582
ask	-11.8582
pack	-11.8582
▁alive	-11.8584
▁bas	-11.8585
2000	-11.8589
▁yum	-11.8593
▁swapon	-11.8595
▁preinstalled	-11.8598
▁lirc	-11.86
▁freaking	-11.8602
▁reproduce	-11.8609
▁bleeding	-11.8612
▁dependancies	-11.8612
75	-11.8622
radar	-11.8623
▁desperate	-11.8627
▁gdebi	-11.8627
comm	-11.8632
▁sym	-11.8635
▁profiles	-11.8638
▁zoom	-11.8643
▁engineer	-11.8647
▁jan	-11.8649
room	-11.8653
assistant	-11.8655
▁wikipedia	-11.8658
▁ntpdate	-11.8659
▁carry	-11.8661
▁tvtime	-11.8661
record	-11.8673
▁living	-11.8674
▁authorized	-11.8674
▁errm	-11.8674
▁creation	-11.8677
▁plugdev	-11.8685
▁prof	-11.8689
▁stumpe	-11.869
▁bc	-11.8691
▁collection	-11.8691
▁ttys	-11.8693
▁threads	-11.8697
▁compilation	-11.8704
▁devede	-11.8705
▁daemons	-11.8713
▁dozen	-11.8721
▁trail	-11.8722
mn	-11.8722
▁-_-	-11.8725
▁gm	-11.874
temp	-11.8745
▁credentials	-11.8751
▁mnt	-11.8755
▁trolling	-11.8756
uh	-11.8761
▁recognised	-11.8762
▁cry	-11.8763
▁warcraft	-11.8767
talled	-11.8777
▁nalioth	-11.8782
non	-11.8786
▁modifying	-11.8786
▁consistent	-11.8797
post	-11.88
▁whe	-11.8801
car	-11.8807
▁advantages	-11.8816
boy	-11.882
▁blink	-11.8823
▁whoa	-11.8829
wr	-11.8837
▁habla	-11.8845
options	-11.8852
module	-11.8858
▁cygwin	-11.886
▁ultra	-11.886
▁dhcpd	-11.8865
vis	-11.8872
spot	-11.8882
fect	-11.8882
duc	-11.8885
spec	-11.8892
▁autocomplete	-11.8893
relatively	-11.8896
▁commit	-11.8901
▁constant	-11.8902
center	-11.8904
oke	-11.8904
▁companies	-11.8908
▁teamspeak	-11.8908
▁tasksel	-11.8911
ising	-11.8913
▁unmuted	-11.8914
pdf	-11.8917
▁kids	-11.8922
usr	-11.8926
ery	-11.8929
84	-11.8929
▁recovering	-11.8934
state	-11.8935
▁centrino	-11.8939
▁tre	-11.8945
▁fallback	-11.8949
face	-11.8952
▁unlike	-11.8954
▁presumably	-11.8955
▁argue	-11.8955
amp	-11.8957
▁flu	-11.8961
▁alc	-11.8962
▁intall	-11.8964
▁reconfigur	-11.8969
▁refers	-11.8985
▁crimsun	-11.8987
direct	-11.8989
▁kid	-11.8989
action	-11.8991
▁actions	-11.9001
▁anonymous	-11.9003
▁fakeroot	-11.9003
▁wit	-11.9004
▁allright	-11.9006
▁cna	-11.9006
▁reserved	-11.9019
▁fixmbr	-11.9019
▁pub	-11.9025
▁shout	-11.9028
▁frames	-11.903
torrent	-11.9031
▁sam	-11.9032
▁slash	-11.9035
700	-11.9035
▁pon	-11.9037
need	-11.9037
▁videocard	-11.9045
friendly	-11.9046
fonts	-11.9046
▁basis	-11.9052
create	-11.9053
bird	-11.9058
▁pici	-11.906
resolution	-11.906
▁sho	-11.9065
▁projects	-11.9067
▁uuids	-11.9068
87	-11.9082
very	-11.9082
▁acroread	-11.9083
83	-11.9085
▁exim	-11.9085
▁remaining	-11.909
▁mid	-11.9091
notify	-11.9094
▁shockwave	-11.9099
▁standalone	-11.9099
▁fglrxinfo	-11.9102
ook	-11.912
▁bugger	-11.9122
▁piss	-11.9128
ua	-11.9131
▁commenting	-11.9134
mem	-11.9136
response	-11.9141
▁openssl	-11.9147
▁uploading	-11.9151
installation	-11.9154
creator	-11.9157
isation	-11.9162
▁ljl	-11.9163
▁interactive	-11.9164
▁dident	-11.9168
▁doom	-11.9169
▁imagemagick	-11.918
▁errr	-11.9194
▁potential	-11.9196
▁tux	-11.9197
▁eu	-11.9197
rupt	-11.9203
▁became	-11.9212
▁generat	-11.9213
▁enterprise	-11.9228
▁gconftool	-11.923
▁kit	-11.9232
office	-11.9234
▁75	-11.9237
▁gold	-11.9249
▁erased	-11.9258
▁narrow	-11.9261
pin	-11.9269
▁tricks	-11.928
ism	-11.9281
▁cord	-11.9287
▁roaming	-11.9294
▁laggy	-11.9294
fire	-11.9303
▁1600	-11.9312
▁okie	-11.9317
▁kate	-11.9317
▁implemented	-11.9322
▁00:1	-11.9327
will	-11.9332
▁ring	-11.9333
▁ce	-11.9334
▁relat	-11.9343
▁central	-11.9343
▁alongside	-11.9344
▁documented	-11.9345
▁reside	-11.9354
▁pptp	-11.936
▁managing	-11.936
▁bored	-11.936
agent	-11.9361
▁boss	-11.9368
69	-11.9369
▁homedir	-11.9372
1050	-11.9374
ification	-11.9376
▁confusion	-11.9377
model	-11.9378
▁selector	-11.9379
▁esound	-11.9385
▁amule	-11.9387
just	-11.9389
▁pacakge	-11.9393
▁powered	-11.9404
filename	-11.9404
▁instaled	-11.9407
mbps	-11.9409
▁emu	-11.9415
▁xscreensaver	-11.9415
▁talked	-11.9418
cted	-11.9419
locate	-11.9422
▁firewalls	-11.9423
▁latency	-11.9426
▁apm	-11.9427
▁mta	-11.9433
▁gre	-11.944
▁250	-11.9441
▁irrelevant	-11.9443
▁dream	-11.9443
▁gray	-11.945
▁usefull	-11.9451
▁agent	-11.9451
bble	-11.9452
▁whit	-11.9456
▁dropdown	-11.9461
▁dlink	-11.9465
▁humm	-11.9472
▁afk	-11.948
▁vol	-11.9481
strongly	-11.9481
▁bog	-11.9484
▁length	-11.9493
▁dkms	-11.9493
▁study	-11.9493
▁acess	-11.9504
shift	-11.9505
▁runlevels	-11.9505
▁retarded	-11.9509
nig	-11.9514
▁ancient	-11.9526
▁cookie	-11.9529
▁cre	-11.9534
▁newbies	-11.9538
▁death	-11.9544
python	-11.9555
▁tags	-11.9556
▁recon	-11.9559
▁pavucontrol	-11.956
▁bloated	-11.9567
ead	-11.9579
▁latex	-11.958
▁brown	-11.9581
▁unmounting	-11.9583
▁700	-11.9593
▁egrep	-11.9596
▁ppas	-11.9597
▁simplest	-11.9599
▁autostart	-11.96
▁swapping	-11.96
keyboard	-11.9607
▁opinions	-11.961
▁queue	-11.961
▁whatsoever	-11.9611
▁transcode	-11.9611
fully	-11.9612
wide	-11.9615
ience	-11.9615
▁slack	-11.9628
▁flawlessly	-11.9629
▁habit	-11.963
89	-11.9632
▁whatnot	-11.9637
pose	-11.9638
▁abiword	-11.9644
▁songbird	-11.9645
▁spawn	-11.9645
▁tmpfs	-11.9645
▁num	-11.9647
▁workin	-11.9649
eeeee	-11.9654
49	-11.9665
artwork	-11.9666
ough	-11.9667
▁protocols	-11.9669
inter	-11.9671
oid	-11.9673
uz	-11.9674
gstreamer	-11.9674
cli	-11.9692
▁associate	-11.9696
raw	-11.9706
▁saver	-11.9708
▁belongs	-11.9712
mesa	-11.9714
▁preferably	-11.9714
▁border	-11.9718
▁pppoeconf	-11.9719
does	-11.9724
▁uncommented	-11.9725
▁calendar	-11.973
▁120	-11.9735
▁inetd	-11.9737
▁condition	-11.9747
80211	-11.9747
▁receiv	-11.9751
edge	-11.9757
▁redownload	-11.9764
igh	-11.9766
79	-11.9772
class	-11.9778
▁beleive	-11.9781
▁widescreen	-11.9782
▁fam	-11.9787
▁21	-11.9791
ether	-11.9792
▁migrat	-11.9793
shipped	-11.9794
▁snap	-11.9796
▁ect	-11.9796
▁sake	-11.9797
▁converter	-11.9798
▁msdos	-11.9799
▁funky	-11.98
▁tk	-11.9802
▁restoring	-11.9805
▁gdb	-11.9806
▁symbols	-11.9821
ntfs	-11.9823
▁corresponding	-11.9827
▁occured	-11.9836
▁arp	-11.9837
▁whoops	-11.9837
▁mor	-11.9839
note	-11.9844
▁hotmail	-11.9851
cid	-11.9855
▁painful	-11.9856
oper	-11.986
▁cleaning	-11.9863
###	-11.9866
▁inkscape	-11.9868
▁libreoffice	-11.9868
▁bummer	-11.9868
bling	-11.9869
▁resolving	-11.9871
▁tele	-11.9874
▁jabber	-11.9885
▁afternoon	-11.9885
▁pardon	-11.9885
▁depmod	-11.9886
▁sais	-11.9886
stick	-11.9888
-12	-11.989
▁buck	-11.9891
▁uptime	-11.9894
92	-11.9901
▁impressed	-11.9903
▁derivative	-11.9903
▁batch	-11.9906
▁bzip	-11.9909
▁devel	-11.991
▁ruin	-11.9913
▁nameservers	-11.9915
hosts	-11.9917
tune	-11.9917
▁kismet	-11.992
atch	-11.9933
ulate	-11.9934
▁beautiful	-11.9938
▁transparency	-11.9938
▁lagging	-11.9938
▁gib	-11.9945
ria	-11.9947
▁manufacturers	-11.995
▁improved	-11.9951
▁hplip	-11.9955
▁timestamp	-11.9955
▁leak	-11.9956
▁libg	-11.9958
▁unfortunat	-11.9973
rely	-11.9973
▁bloody	-11.9974
▁routes	-11.9975
▁400	-11.9986
▁spyware	-11.999
▁trough	-11.999
▁quicktime	-11.9995
▁customization	-11.9995
▁gigabyte	-12.0008
▁scenario	-12.0008
▁finger	-12.0015
▁wrt	-12.0019
sigh	-12.0023
▁enviroment	-12.0025
▁unnecessary	-12.0025
47	-12.003
sources	-12.0032
uce	-12.0034
▁1000	-12.0037
▁ohhh	-12.0052
under	-12.006
▁greeting	-12.0061
agn	-12.0063
▁pelo	-12.0064
39	-12.0065
▁rad	-12.0071
▁intensive	-12.0079
▁wave	-12.0081
▁deactivate	-12.0097
▁25	-12.0098
ional	-12.0099
mix	-12.0106
bil	-12.011
▁dragging	-12.0115
▁probe	-12.0118
ino	-12.0122
▁curse	-12.0125
iton	-12.0126
▁incase	-12.0129
▁corp	-12.013
▁gkrellm	-12.0132
▁deprecated	-12.0132
▁dovecot	-12.0132
▁prism	-12.0132
▁consult	-12.015
▁raise	-12.0155
▁pleas	-12.0155
▁tight	-12.0157
▁pas	-12.0158
case	-12.0165
▁unofficial	-12.0168
▁grip	-12.0171
▁substitute	-12.0175
▁dam	-12.0176
▁tmp	-12.018
▁sensible	-12.0186
sysrq	-12.0186
▁instalation	-12.019
▁wasted	-12.0191
http	-12.0195
▁purged	-12.02
topic	-12.0206
▁rsa	-12.0208
compile	-12.0211
ica	-12.0211
▁entre	-12.0212
▁messy	-12.0213
cn	-12.0215
apps	-12.0219
▁caching	-12.0222
▁drake	-12.0223
jack	-12.0224
she	-12.0226
bad	-12.0228
pkg	-12.0229
▁vcd	-12.0229
▁anjuta	-12.024
▁forgive	-12.024
▁syslinux	-12.0246
fish	-12.0246
▁costs	-12.0246
▁goin	-12.0252
hold	-12.0259
▁asoundconf	-12.0265
wiki	-12.0266
nger	-12.0267
▁thu	-12.027
▁liek	-12.0271
▁slim	-12.0274
▁nowaday	-12.0276
▁transition	-12.0276
using	-12.0276
lame	-12.028
▁incomplete	-12.0286
hcd	-12.0293
▁erusul	-12.0294
▁land	-12.0296
▁pieces	-12.0305
▁lowercase	-12.0312
▁overkill	-12.0317
▁fw	-12.0323
▁specifying	-12.0323
chrome	-12.0328
▁jpeg	-12.033
▁notepad	-12.0332
▁replies	-12.0335
▁nvu	-12.0347
▁ditch	-12.0349
▁codename	-12.0349
▁joined	-12.035
▁theyre	-12.0352
input	-12.0353
▁addon	-12.0362
sub	-12.0365
▁assumption	-12.0367
▁circle	-12.0367
▁clever	-12.0367
▁skills	-12.0368
▁harddrives	-12.0371
▁pmount	-12.0374
▁rob	-12.0378
▁arts	-12.0378
▁nuke	-12.0379
▁decorator	-12.0381
▁powerbook	-12.0389
1080	-12.0391
▁finishe	-12.0394
==	-12.0395
mple	-12.0399
▁independent	-12.0403
juicer	-12.0403
▁intact	-12.0405
▁pastbin	-12.0409
kpkg	-12.0412
flashplugin	-12.042
▁japanese	-12.0422
▁kaffeine	-12.0422
▁screenlets	-12.0422
▁threw	-12.0422
▁controlled	-12.0422
nces	-12.0425
▁ze	-12.0426
▁cop	-12.0444
oth	-12.0445
▁sleeping	-12.0453
▁starters	-12.0456
▁overall	-12.0458
▁dependent	-12.0462
▁communicate	-12.0464
ien	-12.0471
grin	-12.0473
▁ripping	-12.0478
▁frequently	-12.0479
▁kern	-12.0482
self	-12.0483
ication	-12.0485
▁region	-12.0485
▁dots	-12.0489
dump	-12.0491
▁comma	-12.0493
▁labeled	-12.0494
▁dummy	-12.0495
▁phrase	-12.0495
▁registry	-12.0495
▁airport	-12.0496
perl	-12.0497
▁hasnt	-12.0502
>>	-12.0503
▁ipconfig	-12.0505
aver	-12.0506
▁adapt	-12.051
▁notify	-12.0512
▁82801	-12.0514
▁altogether	-12.0514
▁brief	-12.0514
▁operate	-12.0516
zy	-12.0531
▁administrative	-12.0532
▁knwo	-12.0532
▁spread	-12.0534
▁fel	-12.0541
▁hearing	-12.0543
▁pur	-12.0543
tweak	-12.055
▁stating	-12.0554
▁minecraft	-12.057
probe	-12.0584
▁dreamweaver	-12.0588
sparrow	-12.0588
▁outgoing	-12.0588
▁john	-12.0589
▁icmp	-12.0589
▁clam	-12.0589
awn	-12.059
▁launches	-12.0596
▁diss	-12.06
abe	-12.0604
▁postgres	-12.0612
▁vmlinuz	-12.0626
▁equiv	-12.0626
▁smartctl	-12.0626
▁fiddle	-12.0635
▁eol	-12.0643
ries	-12.0644
▁vis	-12.0647
▁reco	-12.0648
navigator	-12.0651
remote	-12.0663
▁clipboard	-12.0663
▁dmz	-12.0668
▁involve	-12.0682
▁avidemux	-12.0682
▁angry	-12.0682
▁overwriting	-12.0683
▁dialogue	-12.0684
▁hr	-12.0685
▁freq	-12.0689
▁overheating	-12.069
▁diagnostic	-12.0701
▁whils	-12.0702
arm	-12.0705
▁pac	-12.0708
▁tritium	-12.072
▁template	-12.072
▁regex	-12.0721
xxxx	-12.0731
▁postinst	-12.0732
getting	-12.0738
▁jun	-12.0739
ison	-12.0741
count	-12.0743
▁accidently	-12.0748
api	-12.0753
▁pool	-12.0753
▁35	-12.0755
▁nightmare	-12.0758
▁xinitrc	-12.0758
▁28-	-12.0759
▁subsystem	-12.076
did	-12.0764
▁whoever	-12.0766
***	-12.0774
▁ltsp	-12.0777
trans	-12.0779
▁contained	-12.0788
effects	-12.0796
▁koala	-12.0796
▁sluggish	-12.0796
▁decoder	-12.0796
▁deliver	-12.0796
▁mapped	-12.0797
▁album	-12.0815
▁misread	-12.0816
wifi	-12.0819
▁tun	-12.0828
▁icedtea	-12.0834
▁horizsync	-12.0834
▁rember	-12.0834
▁purging	-12.0834
▁maintained	-12.0837
▁water	-12.0839
!?	-12.084
▁0:0	-12.0846
iname	-12.085
wee	-12.0852
▁occurre	-12.0856
▁dj	-12.0857
▁instantly	-12.0861
58	-12.0861
col	-12.0861
▁sux	-12.0864
party	-12.0867
disable	-12.0873
▁------	-12.0873
▁hyper	-12.0873
▁subfolder	-12.0873
▁recursively	-12.0881
▁sink	-12.0886
▁asterisk	-12.0892
▁bright	-12.0897
ama	-12.0903
78	-12.0903
▁len	-12.0905
▁suffer	-12.0911
▁mkv	-12.0911
▁exa	-12.0915
▁col	-12.0915
▁70	-12.0929
▁cupsys	-12.093
util	-12.0931
pref	-12.0932
▁nix	-12.0935
▁widget	-12.0936
serve	-12.094
▁tweaks	-12.0949
▁represent	-12.0949
▁girlfriend	-12.0949
▁outlook	-12.095
▁grand	-12.0954
264	-12.0956
more	-12.0961
▁annoy	-12.0961
▁adv	-12.0962
lem	-12.0969
▁comparison	-12.0969
▁conv	-12.0975
▁contribute	-12.0975
▁fiddl	-12.0979
▁strings	-12.0983
inal	-12.0987
▁expression	-12.0995
see	-12.1005
▁pb	-12.1007
▁sister	-12.1011
▁correction	-12.1013
▁container	-12.1016
▁publish	-12.1027
▁xauthority	-12.1027
▁edid	-12.1031
▁pun	-12.1038
▁xinit	-12.1046
▁strength	-12.1047
▁heheh	-12.1048
67	-12.105
▁clueless	-12.1051
compat	-12.1056
▁evo	-12.1064
▁risky	-12.1066
rwxrwxrwx	-12.1066
▁skipping	-12.1067
▁thankyou	-12.1072
prober	-12.1074
codec	-12.1079
▁greater	-12.1083
▁gpart	-12.1092
lay	-12.1093
want	-12.1095
problem	-12.1107
flags	-12.1107
▁triple	-12.1107
▁everyday	-12.1113
def	-12.1121
▁ubiquity	-12.1125
▁hardrive	-12.1126
▁operations	-12.1128
▁establish	-12.1134
▁bitch	-12.1134
fps	-12.1142
▁915	-12.1143
▁ordinary	-12.1145
▁gmplayer	-12.115
▁dumped	-12.1152
unity	-12.1162
▁iceauthority	-12.1165
▁eliminate	-12.1167
▁lockup	-12.1172
stand	-12.1172
▁rich	-12.1172
▁vertrefresh	-12.1185
▁winblows	-12.1185
▁slart	-12.1186
▁involves	-12.1195
▁msi	-12.1203
▁territory	-12.1204
▁primari	-12.1204
about	-12.1209
life	-12.1212
▁actualy	-12.1218
iness	-12.122
boo	-12.1224
aaa	-12.1228
extra	-12.1233
▁fixres	-12.1243
ero	-12.1243
▁someting	-12.1243
▁continu	-12.1244
ried	-12.1244
▁marks	-12.1252
▁recompiling	-12.1264
▁insecure	-12.1264
▁intention	-12.1264
▁highlighting	-12.1267
▁smeg	-12.1267
▁00:00	-12.1275
???	-12.128
▁definit	-12.128
▁winecfg	-12.1285
▁bmp	-12.1286
button	-12.1286
via	-12.1293
wrt	-12.1299
▁cheaper	-12.1299
▁lay	-12.1299
▁cpp	-12.13
wine	-12.1301
rio	-12.1302
▁passes	-12.1302
▁rdesktop	-12.1306
▁pics	-12.131
▁debconf	-12.1314
cups	-12.1314
gnutella	-12.1324
▁winscp	-12.1324
▁subprocess	-12.1325
▁flashes	-12.1334
▁regularly	-12.1342
▁freedom	-12.1345
▁offering	-12.1346
verse	-12.1358
▁gif	-12.1358
▁requirement	-12.1363
▁responsive	-12.1365
▁chk	-12.1365
▁bluefish	-12.1365
▁semi	-12.1382
▁sourceforge	-12.1387
pastebin	-12.1389
▁31-	-12.1394
really	-12.1402
▁reached	-12.1405
▁congrat	-12.1405
▁exaile	-12.1405
fast	-12.1405
kon	-12.1405
▁1920	-12.1406
▁wiping	-12.1406
localhost	-12.1408
thread	-12.1408
limit	-12.1409
zero	-12.1411
▁uhmm	-12.1414
▁bridged	-12.1415
▁160	-12.1416
▁apologize	-12.1425
▁calm	-12.1427
sleep	-12.1428
2/3	-12.143
▁mtu	-12.1444
drv	-12.1445
▁enemy	-12.1446
▁unchecked	-12.1449
▁copyright	-12.1451
msg	-12.146
▁extent	-12.1462
activ	-12.1464
▁ntldr	-12.1466
▁theoretical	-12.1466
8139	-12.1466
dpkg	-12.1467
▁pirate	-12.1467
▁libglib	-12.1487
▁slide	-12.1488
▁ethtool	-12.1489
▁renderer	-12.1497
abl	-12.15
▁sooo	-12.1519
▁busca	-12.1525
▁phase	-12.1528
computer	-12.153
anybody	-12.153
▁integrate	-12.1531
magic	-12.1543
▁unresponsive	-12.1548
▁yoru	-12.1551
▁dropbox	-12.1552
rsa	-12.1554
van	-12.156
111	-12.1567
▁administer	-12.1568
▁xampp	-12.1568
rescue	-12.1571
binary	-12.1574
915	-12.1575
▁progs	-12.1588
▁dictionary	-12.1589
▁mechanism	-12.1589
▁directive	-12.1597
oooooo	-12.1601
▁incorrectly	-12.1604
▁accepted	-12.1607
▁builtin	-12.1609
▁mov	-12.1609
▁paranoid	-12.161
▁rtfm	-12.161
▁explore	-12.1616
prefs	-12.1623
▁manualy	-12.1629
▁messes	-12.1633
▁overhead	-12.1638
▁hunt	-12.164
▁preventing	-12.1643
vision	-12.1644
antly	-12.1645
cho	-12.1648
▁ndisgtk	-12.1652
▁foobar	-12.1653
referred	-12.1662
▁ticked	-12.1663
▁flaw	-12.1664
▁describ	-12.1665
jdk	-12.1669
▁spamming	-12.1672
shot	-12.1681
ball	-12.1688
ull	-12.1688
ette	-12.1692
▁casper	-12.1693
▁flickering	-12.1693
▁rubbish	-12.1714
▁stdout	-12.1714
include	-12.1717
▁porn	-12.172
▁orig	-12.1722
▁rightclick	-12.1725
kay	-12.1725
▁covered	-12.1727
▁tut	-12.1734
▁weekend	-12.1738
▁tape	-12.174
▁relay	-12.1745
▁mime	-12.1754
▁divide	-12.1756
▁busid	-12.1759
emu	-12.1761
▁filters	-12.1763
▁svg	-12.1767
▁cue	-12.1777
▁chatter	-12.1784
▁fwcutter	-12.1788
[1	-12.1792
▁taste	-12.1794
▁city	-12.1794
▁gibbon	-12.1798
▁keymap	-12.1801
▁smbd	-12.1811
▁exiting	-12.1818
▁capacity	-12.1819
▁logfile	-12.182
▁coll	-12.1824
▁.'	-12.1828
forward	-12.1832
▁drawing	-12.1839
▁1680	-12.184
▁?!?	-12.1841
▁naming	-12.1841
icate	-12.1841
▁autologin	-12.1843
▁aliases	-12.1851
▁culprit	-12.1861
▁tinker	-12.1861
unix	-12.1867
num	-12.1867
▁partions	-12.1874
▁happ	-12.1894
▁webpages	-12.1894
pubkey	-12.1899
▁macromedia	-12.1904
suid	-12.1911
▁span	-12.1922
cpu	-12.1924
▁bre	-12.1928
▁products	-12.1929
▁xming	-12.194
▁dust	-12.1945
▁newline	-12.1947
ened	-12.1953
▁restriction	-12.196
▁slots	-12.1965
reload	-12.1967
▁organize	-12.1968
▁stress	-12.1968
▁aspect	-12.1969
▁dynamically	-12.1969
▁rss	-12.1971
94	-12.1973
was	-12.1973
▁thou	-12.1974
hw	-12.1975
ght	-12.1983
▁patent	-12.1989
▁oooh	-12.1996
▁proof	-12.1997
965	-12.2001
▁hl	-12.2001
▁squashfs	-12.2011
▁setuid	-12.2011
▁readonly	-12.2021
▁hog	-12.2026
▁hybrid	-12.2032
kbps	-12.2037
stem	-12.2049
▁dozens	-12.2053
▁msttcorefonts	-12.2054
▁chi	-12.2056
▁mice	-12.2059
cmdline	-12.2067
▁warranty	-12.2075
▁confident	-12.2075
▁phil	-12.2077
▁byte	-12.208
▁hair	-12.2082
misc	-12.2087
▁matt	-12.2092
ously	-12.2096
▁terrib	-12.2096
▁1440	-12.2098
left	-12.21
▁presentation	-12.2104
eck	-12.2106
nel	-12.2107
▁socks	-12.2115
nfront	-12.2116
storm	-12.2117
▁vary	-12.2119
▁pannel	-12.2119
▁road	-12.2122
▁calc	-12.2122
▁etch	-12.2124
▁reloading	-12.2124
▁convenient	-12.2141
▁unpartitioned	-12.2141
▁mythbuntu	-12.2141
▁joe	-12.215
▁bg	-12.2151
style	-12.2157
forwarding	-12.2162
▁userspace	-12.2162
▁fantastic	-12.2162
▁libflashplayer	-12.2162
▁satisfi	-12.2162
▁compet	-12.2163
▁dest	-12.2169
▁rear	-12.2173
seq	-12.2178
▁capability	-12.2185
▁0000:00	-12.2187
▁speech	-12.2206
▁thoreauputic	-12.2206
▁underneath	-12.2206
▁baby	-12.2207
▁twi	-12.2208
▁shipit	-12.2209
▁smbmount	-12.2209
▁encounter	-12.2218
▁postgresql	-12.2228
▁computing	-12.2228
viewer	-12.2246
wait	-12.2247
▁joystick	-12.225
▁somethign	-12.2251
bios	-12.2252
▁cutting	-12.2256
message	-12.2256
▁!!!!!	-12.2265
zer	-12.227
▁lags	-12.2272
▁sniff	-12.2272
▁directx	-12.2273
▁dislike	-12.2273
▁customized	-12.2274
▁colours	-12.2282
ooo	-12.2282
▁perm	-12.2282
▁trip	-12.2284
interpreter	-12.2287
▁accordingly	-12.2294
▁malware	-12.2294
▁icq	-12.2296
which	-12.23
storage	-12.2301
▁mentioning	-12.2301
▁developing	-12.2302
▁cla	-12.2308
bel	-12.2312
▁similer	-12.2317
▁scope	-12.2317
night	-12.2318
▁indication	-12.2319
▁changelog	-12.2334
clicking	-12.2338
▁jesus	-12.2339
▁straightforward	-12.2339
interface	-12.2345
solving	-12.2352
ssss	-12.2353
mixer	-12.2361
▁invisible	-12.2361
search	-12.2361
sytem	-12.2362
▁01:00	-12.2365
▁lowest	-12.2367
▁>=	-12.2376
▁widgets	-12.2377
vbox	-12.238
▁gam	-12.2383
▁thumbnail	-12.2383
▁liking	-12.2385
universe	-12.239
▁adaptor	-12.239
▁opendns	-12.2394
▁practical	-12.2401
▁56	-12.2403
▁ships	-12.2409
application	-12.2412
▁pcie	-12.2423
filter	-12.2425
hide	-12.2428
▁assemble	-12.2428
▁swedish	-12.2428
▁zombie	-12.2428
▁prepare	-12.2434
▁hrs	-12.2447
▁arrive	-12.2451
▁quanta	-12.2451
vol	-12.2456
▁getdeb	-12.2463
▁acceptable	-12.2465
▁woody	-12.2473
meg	-12.2474
refusing	-12.2475
▁drink	-12.2475
guard	-12.2481
cious	-12.2491
▁promising	-12.2496
▁execution	-12.2496
multiverse	-12.2503
▁soundblaster	-12.2518
▁reformatting	-12.2521
!!!	-12.2525
purge	-12.2526
blah	-12.2532
▁unplugging	-12.2542
gcc	-12.2545
this	-12.2555
monkey	-12.2557
▁effective	-12.2558
▁sensor	-12.2563
▁amaranth	-12.2564
▁configurable	-12.2564
▁xsane	-12.2564
▁polite	-12.2565
hahahaha	-12.2569
▁flight	-12.2572
▁esp	-12.2574
▁largest	-12.2577
appearance	-12.2578
▁exited	-12.2585
▁manipulate	-12.2587
▁numero	-12.2588
▁fax	-12.2592
startup	-12.2593
▁hon	-12.261
▁majority	-12.2613
▁curve	-12.2616
▁parents	-12.2619
dsp	-12.2626
▁xawtv	-12.2632
▁judg	-12.2634
▁fla	-12.2647
▁unrecognize	-12.2655
▁smoking	-12.2655
▁fell	-12.2656
completly	-12.2661
enabled	-12.2668
▁sans	-12.2674
▁gtx	-12.2694
▁zsh	-12.2697
▁certificate	-12.2701
▁xdmcp	-12.2702
▁train	-12.2702
▁fetchmail	-12.2702
▁idleone	-12.2703
▁sticky	-12.2706
▁04	-12.2708
▁abuse	-12.2712
▁realtime	-12.2712
▁persistant	-12.2712
▁bond	-12.2713
▁shape	-12.2714
mux	-12.2715
▁apparmor	-12.2724
▁jam	-12.2726
layout	-12.2732
mil	-12.2733
▁established	-12.2737
▁graphically	-12.2745
ugg	-12.276
▁lc	-12.2765
▁bittornado	-12.2771
▁horribly	-12.2771
▁integration	-12.2771
color	-12.2772
▁lg	-12.2773
▁regenerate	-12.2776
▁synch	-12.2779
channel	-12.2779
music	-12.278
acpi	-12.2785
aaaaaa	-12.2786
▁kdevelop	-12.2794
▁libdvdread	-12.2794
▁suid	-12.2802
warning	-12.2803
drop	-12.2805
arg	-12.2817
▁handbrake	-12.2817
matrox	-12.2817
▁serving	-12.2817
hting	-12.282
▁colon	-12.2826
▁factory	-12.2828
▁unpacking	-12.2832
▁collect	-12.2838
▁rox	-12.2844
▁benefits	-12.2847
▁eve	-12.285
▁journaling	-12.2852
▁fry	-12.2859
scott	-12.2864
▁grabbing	-12.2864
▁blacklisting	-12.2865
▁ignorance	-12.2865
▁consume	-12.2866
lam	-12.2872
▁trusted	-12.2881
▁konversation	-12.2888
▁recv	-12.2904
enter	-12.2906
▁suffice	-12.2911
▁genius	-12.2911
▁ttf	-12.2913
lier	-12.2929
▁uncompress	-12.2935
▁unreadable	-12.2935
▁ken	-12.2935
▁thumbdrive	-12.2935
▁unpacked	-12.2938
▁roughly	-12.2939
▁stil	-12.294
▁correspond	-12.2943
▁29	-12.2946
may	-12.2946
▁bloat	-12.2948
▁lis	-12.2957
▁bizarre	-12.2958
▁muck	-12.2958
▁surprise	-12.2965
▁cra	-12.2967
engine	-12.2974
▁jumping	-12.2976
▁floppies	-12.2982
▁obscure	-12.2982
▁timezone	-12.2982
▁blackbox	-12.299
▁imply	-12.2994
▁22-14-	-12.3006
▁infected	-12.3006
▁seagate	-12.3006
ham	-12.3006
▁ddrescue	-12.3007
▁reopen	-12.3007
▁'"	-12.3007
watch	-12.3009
depth	-12.302
▁grayed	-12.3021
▁pico	-12.3026
▁virt	-12.3027
▁precompiled	-12.303
▁defects	-12.303
▁"!	-12.3033
▁pane	-12.3036
▁gru	-12.3047
▁pnp	-12.3054
stuff	-12.3054
▁ubuntustudio	-12.3054
▁2-3	-12.3055
sure	-12.3055
▁winmodem	-12.3056
▁realised	-12.3064
▁downgrading	-12.3077
▁bundle	-12.3077
586	-12.3092
▁warned	-12.3096
▁tied	-12.3096
plus	-12.3098
▁rolling	-12.3101
null	-12.3101
▁cafuego	-12.3101
▁lunch	-12.3102
▁upnp	-12.3103
bal	-12.3121
dists	-12.3125
fail	-12.3142
distribut	-12.3148
▁underscore	-12.315
▁transferring	-12.3152
128	-12.3152
real	-12.3166
▁bank	-12.3169
▁badblocks	-12.3174
▁chunk	-12.3174
▁ltd	-12.3176
▁chainloader	-12.3177
eaf	-12.3191
▁suspicious	-12.3198
ripper	-12.3204
▁separately	-12.3218
posed	-12.3222
▁imagin	-12.3222
▁acronym	-12.3222
▁scim	-12.3223
▁ground	-12.3223
range	-12.3233
▁prepared	-12.324
dows	-12.3242
park	-12.3242
▁travel	-12.3247
▁symptoms	-12.325
▁interact	-12.325
▁chill	-12.3257
▁gma	-12.3258
speed	-12.3259
kar	-12.3263
▁crossed	-12.3271
▁knock	-12.3272
▁breakage	-12.3278
rwxr	-12.3286
priv	-12.3288
▁reveal	-12.3295
▁simultaneously	-12.3297
▁cel	-12.33
▁noacpi	-12.33
aaaa	-12.3302
▁pushed	-12.3304
breezy	-12.3306
ooooo	-12.3309
soft	-12.3312
▁registering	-12.3317
▁keybinding	-12.332
▁undefine	-12.332
▁elinks	-12.332
▁encoder	-12.3331
safe	-12.3331
▁pushing	-12.3342
▁surprising	-12.3344
▁pita	-12.3345
▁ehci	-12.3348
ppy	-12.3349
▁difficulty	-12.3353
▁cylinders	-12.3355
world	-12.3357
▁advis	-12.3359
▁emergency	-12.3369
▁favourite	-12.3369
▁reckon	-12.3369
▁ebox	-12.337
▁menuconfig	-12.3379
▁16:	-12.3381
ju	-12.3386
▁adn	-12.3386
▁comunica	-12.3394
screensaver	-12.3397
▁yell	-12.3415
▁insight	-12.3421
▁grabbe	-12.3423
document	-12.343
▁vfs	-12.3435
gmail	-12.3439
vorbis	-12.3443
▁nokia	-12.3443
▁pgp	-12.345
▁orinoco	-12.3468
▁remeber	-12.3468
▁routine	-12.3468
storing	-12.3468
▁blaster	-12.3469
▁wpasupplicant	-12.347
lfe	-12.3484
▁conect	-12.349
oud	-12.3498
▁yaboot	-12.3505
▁dmix	-12.3508
▁flow	-12.3509
▁dale	-12.3511
▁shoud	-12.3513
▁stdin	-12.3518
▁jail	-12.3522
▁sdk	-12.3527
games	-12.3529
▁experi	-12.3542
▁superior	-12.3544
▁escribe	-12.3545
▁optimized	-12.3551
▁combine	-12.3552
▁manner	-12.3556
▁digging	-12.3569
(0)	-12.357
gid	-12.358
vel	-12.3584
▁lee	-12.3586
potentially	-12.3593
▁initiate	-12.3596
▁relate	-12.3603
▁modifications	-12.3606
▁2007	-12.3607
▁daniel	-12.3619
▁strictly	-12.3619
▁suprise	-12.3619
▁framework	-12.3619
ike	-12.3622
▁dvb	-12.3625
untu	-12.3627
▁vob	-12.363
clean	-12.3635
aught	-12.3637
proposed	-12.3639
sata	-12.3639
▁cheat	-12.3653
▁automaticly	-12.3654
▁smartmontools	-12.3669
illas	-12.3674
configuration	-12.3674
▁eft	-12.3675
▁partially	-12.3679
wan	-12.3683
abi	-12.3684
▁offical	-12.3684
▁employ	-12.3695
▁quota	-12.3695
▁replicate	-12.372
antic	-12.3728
▁whin	-12.3736
▁react	-12.3737
▁deploy	-12.3746
nolapic	-12.3748
▁reformatted	-12.3748
▁decorations	-12.3753
▁xpress	-12.3771
▁challenge	-12.3772
▁interval	-12.3772
▁spending	-12.3776
▁smile	-12.3777
ternal	-12.3777
▁alex	-12.3781
second	-12.3785
vvv	-12.3795
▁nivida	-12.3797
▁confirmation	-12.3808
▁grrr	-12.3814
iiii	-12.3818
▁shorewall	-12.3823
▁gvim	-12.3823
▁prepend	-12.3823
▁horiz	-12.3823
▁nohup	-12.3823
game	-12.3824
1400	-12.3828
▁>_	-12.3835
▁terminated	-12.384
craft	-12.3841
▁fashion	-12.3849
▁unencrypted	-12.3849
▁pretend	-12.3849
▁terminate	-12.3858
▁bump	-12.3873
atic	-12.3873
incredibly	-12.3875
▁australia	-12.3875
▁allocated	-12.3881
▁swapoff	-12.3884
▁south	-12.3887
▁flavor	-12.3901
▁emerge	-12.3902
▁xset	-12.3905
▁??????	-12.392
▁cronjob	-12.3927
▁width	-12.3927
▁asoundrc	-12.3927
▁boring	-12.3928
▁eff	-12.393
zyk	-12.3944
▁expose	-12.3945
▁introduce	-12.3953
▁assure	-12.3954
▁reject	-12.3965
guide	-12.3965
▁gecko	-12.3979
matrix	-12.3979
▁stripped	-12.3979
▁popping	-12.3982
▁netcat	-12.3982
▁dint	-12.3983
▁jerk	-12.3984
▁abt	-12.3984
inittab	-12.3987
▁crunchbang	-12.399
958	-12.4
▁seahorse	-12.4005
▁detach	-12.4005
▁autoclean	-12.4007
ugh	-12.4007
hostname	-12.4014
keyring	-12.4021
▁digit	-12.4026
▁refit	-12.4032
▁respo	-12.404
howto	-12.405
▁0-1	-12.4057
▁extensive	-12.4058
▁increasing	-12.4058
▁overwrote	-12.4058
▁impact	-12.4058
dyn	-12.4058
▁supergrub	-12.4062
▁approx	-12.4063
!!	-12.4066
uuid	-12.408
▁joking	-12.4086
▁ji	-12.4086
▁minus	-12.4094
▁pts	-12.4096
accessories	-12.4099
service	-12.41
label	-12.4101
iamo	-12.4109
▁aircrack	-12.4111
hhhhhhh	-12.4112
▁netinstall	-12.4129
▁maintenance	-12.4138
▁redundant	-12.4138
▁trojan	-12.4138
join	-12.4139
▁magically	-12.414
sql	-12.4142
disc	-12.4149
▁ramdisk	-12.4154
trace	-12.4154
▁lesson	-12.4159
▁....?	-12.4162
speak	-12.4163
▁synergy	-12.4164
tories	-12.4178
strict	-12.4181
▁chainload	-12.4187
complete	-12.419
▁advertis	-12.4191
yyy	-12.4191
location	-12.4202
minimal	-12.4206
crap	-12.4207
find	-12.4215
▁hiding	-12.4216
▁galeon	-12.4218
▁>_>	-12.4219
▁spoke	-12.4221
▁consist	-12.4235
▁ntfsprogs	-12.4245
▁voip	-12.4248
▁swapped	-12.4252
font	-12.4269
▁conclusion	-12.4299
requiring	-12.4299
uuu	-12.4303
▁psu	-12.4307
▁soundray	-12.4314
wrapper	-12.4315
▁overlay	-12.433
▁wth	-12.4334
notifier	-12.4336
▁category	-12.4353
250	-12.4362
▁rough	-12.4363
▁querie	-12.4379
▁cloning	-12.438
▁meeting	-12.4381
▁gnomefreak	-12.4385
▁receiver	-12.4402
known	-12.4404
▁movement	-12.4409
ilo	-12.441
▁ehh	-12.441
rock	-12.4411
▁hahah	-12.4413
▁poorly	-12.4431
▁ebay	-12.4435
▁preseed	-12.4435
▁ignorant	-12.4439
title	-12.4445
▁manger	-12.4449
well	-12.445
remount	-12.4463
▁comming	-12.447
▁pgrep	-12.4479
▁stretch	-12.449
▁poo	-12.4497
▁easysource	-12.4498
▁dissapear	-12.4518
▁nspluginwrapper	-12.4518
▁analyze	-12.4518
▁staff	-12.4519
▁autoconf	-12.4525
true	-12.4526
▁pray	-12.4528
▁alarm	-12.4547
▁combined	-12.4564
▁smoother	-12.4593
▁urgent	-12.4601
▁witch	-12.4603
▁desire	-12.4613
talk	-12.4626
▁puzzle	-12.4629
▁europe	-12.4629
ested	-12.4646
▁reality	-12.4651
▁presario	-12.4657
▁yield	-12.4657
▁brute	-12.4658
ibility	-12.4662
reboot	-12.4669
rise	-12.4679
▁fragmentation	-12.4685
▁satisfy	-12.4685
▁nifty	-12.4685
▁disrto	-12.4685
▁hwinfo	-12.4687
▁archlinux	-12.4693
rrrrr	-12.4695
▁?.	-12.4698
▁flame	-12.4698
edgers	-12.47
▁attribute	-12.4713
▁wobbly	-12.4713
▁parsing	-12.4713
▁awake	-12.4714
encies	-12.4717
▁cow	-12.4718
▁jon	-12.472
▁xkill	-12.4732
▁loos	-12.4732
patch	-12.4738
▁possi	-12.4739
▁charla	-12.4746
▁possibilitie	-12.4749
▁distribute	-12.4755
bie	-12.4755
▁bang	-12.4758
▁rejected	-12.4759
long	-12.4764
▁utter	-12.477
▁pinning	-12.4771
▁kino	-12.4775
▁bork	-12.4819
▁malicious	-12.4827
▁dutch	-12.4827
▁percentage	-12.4827
▁nada	-12.4829
most	-12.485
▁keystroke	-12.4855
▁registration	-12.4855
▁trackpad	-12.4857
▁psmouse	-12.4857
▁healthy	-12.4859
▁programme	-12.4859
spell	-12.4869
▁invite	-12.4885
▁vai	-12.4886
▁ldconfig	-12.4887
350	-12.4889
▁somethin	-12.49
▁regression	-12.4913
▁winff	-12.4923
▁continuous	-12.4923
▁pra	-12.4924
▁????????	-12.4932
▁decrease	-12.4941
keygen	-12.4943
▁sysadmin	-12.4946
▁danger	-12.4948
▁xinetd	-12.4948
▁settle	-12.4949
▁gettin	-12.4954
scanned	-12.4955
▁lean	-12.4963
▁dolphin	-12.497
▁:::	-12.4978
▁disappoint	-12.4999
▁compatability	-12.4999
▁tonne	-12.5
loop	-12.5
▁libxine	-12.5007
▁argu	-12.5009
650	-12.5013
▁macro	-12.5025
▁credit	-12.5029
▁.:	-12.5029
onic	-12.5031
▁courier	-12.5057
▁heavily	-12.5057
▁teamviewer	-12.5058
▁wordpress	-12.506
▁8800	-12.506
▁overnight	-12.5062
▁distributed	-12.5075
▁bootsplash	-12.5077
▁945	-12.5088
2004	-12.509
effectively	-12.5103
▁hammer	-12.5116
▁perfer	-12.5119
▁toolkit	-12.5121
trick	-12.5121
wiw	-12.5126
▁slap	-12.5134
▁carrie	-12.5135
internet	-12.5138
strictedformats	-12.5139
▁creat	-12.5141
▁dependancy	-12.5145
good	-12.5155
▁america	-12.5169
▁vanish	-12.5175
▁1:1	-12.5176
▁rhel	-12.5179
▁dselect	-12.5192
depends	-12.5196
smtp	-12.5196
bilities	-12.5196
2010	-12.5202
▁xcompmgr	-12.5205
▁omit	-12.5205
▁neo	-12.521
▁synap	-12.5223
pae	-12.5231
▁codepage	-12.5238
▁american	-12.524
▁kdelibs	-12.5241
enmod	-12.5248
stairs	-12.5258
▁grr	-12.5264
▁stanza	-12.5264
▁wut	-12.527
▁permit	-12.5286
▁tearing	-12.5294
▁foremost	-12.5294
▁libsdl	-12.5294
▁insult	-12.5295
▁shred	-12.53
radeon	-12.5305
4318	-12.531
▁subdirectorie	-12.5311
▁fundamental	-12.5324
▁edu	-12.5324
▁complet	-12.5326
▁operator	-12.5326
▁invest	-12.533
▁scare	-12.5339
wlan	-12.5339
psych	-12.5346
▁jim	-12.5356
gear	-12.5382
▁optimus	-12.5384
▁repeatedly	-12.5384
▁polish	-12.5385
▁smoke	-12.5385
▁vector	-12.5385
▁differnet	-12.5387
▁reasonably	-12.5394
▁damnit	-12.5403
aze	-12.5406
ccsm	-12.5406
ology	-12.5407
▁ompaul	-12.5414
▁novell	-12.5414
▁brick	-12.5416
▁reliab	-12.5417
▁dosnt	-12.5421
▁shud	-12.5436
project	-12.5436
▁matlab	-12.5444
▁defeat	-12.5445
uge	-12.5445
penguin	-12.5445
▁geany	-12.5445
▁jfs	-12.5457
studio	-12.5466
▁interfere	-12.5469
▁>>>	-12.5471
▁usability	-12.548
▁terr	-12.5482
▁bitchx	-12.5485
restart	-12.5497
▁permision	-12.5505
each	-12.5506
▁thnk	-12.5507
▁unsafe	-12.5507
▁origin	-12.5513
▁flashdrive	-12.5514
ssion	-12.5515
▁2009	-12.5515
running	-12.552
status	-12.5527
▁circumstance	-12.5536
▁luckily	-12.554
▁interaction	-12.5541
▁hover	-12.5545
▁modification	-12.5552
▁moron	-12.5557
▁mneptok	-12.5567
▁madpilot	-12.5567
▁halfway	-12.557
▁rage	-12.5576
might	-12.5595
▁glob	-12.5597
▁afaic	-12.5598
suspend	-12.5621
▁skippe	-12.5623
▁privoxy	-12.5628
▁zykotick	-12.5628
▁transmit	-12.5628
▁numlock	-12.5628
▁examine	-12.5629
▁unistall	-12.5629
pool	-12.5629
256	-12.5632
▁generation	-12.5635
▁hogg	-12.5647
▁explicit	-12.5654
▁tue	-12.5657
▁acrobat	-12.5659
▁powernowd	-12.5659
▁whoami	-12.566
▁eras	-12.5668
440	-12.567
gnu	-12.5671
zipped	-12.5678
cough	-12.5679
▁2>&1	-12.569
▁cooperate	-12.569
▁traditional	-12.569
▁zcat	-12.5692
▁lord	-12.5699
option	-12.57
▁?!?!	-12.5701
routing	-12.5714
120	-12.5718
▁kdesu	-12.5721
▁consuming	-12.5721
▁science	-12.5721
▁wildcard	-12.5722
▁somone	-12.5723
▁sheet	-12.573
2008	-12.5745
ndiswrapper	-12.5746
▁keycode	-12.5771
connection	-12.5777
▁deserve	-12.5777
wheel	-12.5777
console	-12.5777
▁fingerprint	-12.5784
route	-12.5786
private	-12.5809
▁impressive	-12.5815
▁dmrc	-12.5818
▁slick	-12.5819
▁broad	-12.5822
▁eggdrop	-12.5847
▁ripped	-12.5848
pissed	-12.5858
multi	-12.5862
0:00	-12.5865
graphics	-12.5872
▁electric	-12.5879
bcd	-12.5881
after	-12.5899
break	-12.5904
▁propritar	-12.591
▁kewl	-12.5911
▁"'	-12.5912
▁fmask	-12.5916
▁practically	-12.5918
fresh	-12.5927
▁cylinder	-12.5928
▁lfs	-12.5928
having	-12.5936
▁0000:0	-12.5939
▁education	-12.5942
▁infinite	-12.5942
▁llutz	-12.5942
▁wodim	-12.5942
3000	-12.5943
▁dialout	-12.5945
8187	-12.5945
▁clutter	-12.5974
▁flexible	-12.5974
▁ubutnu	-12.5974
▁1:0	-12.5981
▁3-4	-12.5982
▁safety	-12.5989
▁artist	-12.5991
▁disregard	-12.6006
▁nvida	-12.6006
wolf	-12.6007
▁wnat	-12.6016
meanwhile	-12.6038
▁infrastructure	-12.6038
▁thorough	-12.6038
▁calculate	-12.6038
▁simulate	-12.6039
▁fubar	-12.604
awk	-12.6047
debug	-12.6051
forge	-12.6072
▁extention	-12.6095
gamma	-12.6096
ldap	-12.6102
▁neighbor	-12.6103
▁swfdec	-12.6103
implies	-12.6104
rules	-12.6131
▁conduct	-12.6135
▁trim	-12.6141
▁gem	-12.6156
aries	-12.6158
▁****	-12.6163
▁lexmark	-12.6168
=512	-12.6168
▁numeric	-12.6169
▁1/2	-12.6169
▁luks	-12.617
▁javadeb	-12.6175
wpa	-12.6194
public	-12.6195
easy	-12.6212
▁unbootable	-12.6234
▁fujitsu	-12.6234
▁zsnes	-12.6234
beta	-12.6235
serial	-12.6248
ssid	-12.6257
▁announce	-12.6266
frame	-12.6269
▁bomb	-12.6276
▁corre	-12.628
▁ftw	-12.6292
▁shipping	-12.63
▁questo	-12.63
▁comcast	-12.6302
▁shure	-12.6308
▁supplied	-12.6333
yikes	-12.6334
▁params	-12.6335
▁interfer	-12.634
fee	-12.6347
firmware	-12.6361
trash	-12.6364
▁energy	-12.6366
▁norton	-12.6368
move	-12.6369
▁mood	-12.637
resize	-12.6398
▁netbios	-12.6401
▁misunderstand	-12.6404
▁convention	-12.6418
▁exam	-12.6421
▁isolate	-12.6421
attr	-12.6424
▁apparent	-12.6427
virtual	-12.6428
sdk	-12.6429
▁occasion	-12.6446
iterate	-12.6447
paint	-12.6462
ggy	-12.6478
▁eval	-12.6486
vga	-12.6498
▁sugest	-12.65
▁himself	-12.6501
▁unblock	-12.6504
▁alis	-12.6508
360	-12.6508
▁easi	-12.6512
vlc	-12.6528
▁enlighten	-12.6533
▁discourage	-12.6534
▁dpms	-12.6534
▁accellerat	-12.6534
▁expire	-12.6535
▁titlebar	-12.6535
ieve	-12.654
body	-12.6543
geek	-12.6545
▁planet	-12.655
critical	-12.6563
▁utilize	-12.6567
▁weechat	-12.6567
▁amazon	-12.6567
▁woudl	-12.6567
▁distinct	-12.657
▁outta	-12.6582
eather	-12.6589
nautilus	-12.6597
▁sqlite	-12.6602
▁construct	-12.6603
▁htpc	-12.6603
▁conection	-12.6609
▁italian	-12.6613
quire	-12.6614
query	-12.6633
▁enclosure	-12.6636
▁libasound	-12.6636
▁defragment	-12.6639
▁initscript	-12.664
▁pendrivelinux	-12.664
▁improv	-12.665
▁canada	-12.6657
function	-12.6666
insert	-12.6667
stration	-12.6667
pavilion	-12.667
▁unsecure	-12.667
▁compose	-12.667
▁bridg	-12.6671
▁automagic	-12.6672
▁rush	-12.6673
▁cook	-12.6673
▁customiz	-12.6679
cvs	-12.6683
▁konq	-12.6687
▁frustration	-12.6704
▁17-10-	-12.6704
svn	-12.6705
▁alas	-12.6706
▁worthless	-12.6713
▁bingo	-12.6714
▁brow	-12.6734
▁winrar	-12.6739
▁libssl	-12.6739
▁trade	-12.6739
▁rapid	-12.674
chroot	-12.6741
▁italiano	-12.6762
▁robot	-12.6771
visual	-12.6771
▁twin	-12.6772
desk	-12.6773
▁licensing	-12.6773
▁helix	-12.6773
▁cyber	-12.6774
linuxmce	-12.6785
aba	-12.6793
▁bleh	-12.6808
▁snmp	-12.6808
▁photorec	-12.6808
▁unclear	-12.6809
fhand	-12.6818
team	-12.6842
▁jvm	-12.6846
▁smth	-12.6853
▁lok	-12.6854
▁steve	-12.6869
▁moot	-12.687
▁shoul	-12.6871
▁brilliant	-12.6878
▁assertion	-12.6878
▁acquire	-12.6878
▁busted	-12.6882
▁difficulties	-12.6883
ander	-12.6893
▁dinner	-12.6913
▁gnea	-12.6913
▁embed	-12.6913
▁inspect	-12.6936
▁boat	-12.6937
▁fade	-12.6942
mapper	-12.6943
ffmpeg	-12.6945
▁algorithm	-12.6948
▁scream	-12.6948
▁deamon	-12.6948
▁.;	-12.6948
▁crawl	-12.6948
▁hurry	-12.6949
▁percent	-12.695
000000	-12.6952
freq	-12.6952
▁drum	-12.6953
sharing	-12.697
ltered	-12.697
▁gthumb	-12.6983
ubntu	-12.6984
................	-12.6985
▁thermal	-12.6986
▁statically	-12.6993
propos	-12.6998
▁conexant	-12.7019
▁respectively	-12.7019
▁summary	-12.7019
▁uefi	-12.7019
▁becasu	-12.7019
▁abou	-12.7043
accel	-12.7052
bridge	-12.7053
▁downlaod	-12.7054
▁succesfully	-12.7057
▁yessir	-12.7057
▁alsactl	-12.7061
▁perspective	-12.709
▁defualt	-12.709
▁electronic	-12.709
▁awsome	-12.709
▁flaky	-12.7091
▁subdirectory	-12.7092
▁overheat	-12.7111
▁libflashsuppor	-12.7126
▁abstract	-12.7126
gnewsense	-12.7162
▁messaging	-12.7162
▁scene	-12.7163
▁assignment	-12.7168
▁kool	-12.7173
▁survive	-12.7198
▁vulnerabilit	-12.7198
▁stderr	-12.7198
???????????????	-12.7198
▁touchscreen	-12.7203
▁diver	-12.7206
▁encourage	-12.7219
bluetooth	-12.7232
▁eyecandy	-12.7234
▁disturb	-12.7234
▁greek	-12.7235
scsi	-12.727
tempted	-12.7284
▁determin	-12.7288
ctory	-12.7301
▁decompress	-12.7307
▁happily	-12.7307
▁battle	-12.7308
razor	-12.7308
▁stalls	-12.7308
1-6	-12.7319
▁decoration	-12.7334
▁shiretoko	-12.7344
▁outbound	-12.7344
index	-12.7348
▁mainboard	-12.7349
▁replie	-12.7371
3/4	-12.7373
recovery	-12.7379
▁chgrp	-12.7381
▁graveman	-12.7381
▁philosophy	-12.7381
▁silicon	-12.7381
▁kiba	-12.7381
▁shiny	-12.7381
▁involv	-12.7392
atically	-12.7395
cycle	-12.7416
vmware	-12.7417
▁excited	-12.7417
▁exceed	-12.7418
▁relax	-12.7418
▁drastic	-12.7418
though	-12.7421
▁navigat	-12.7432
▁dvdrip	-12.7438
oriented	-12.7438
▁looo	-12.7445
▁health	-12.745
▁voodoo	-12.7455
▁laser	-12.7457
▁gpm	-12.7462
close	-12.7515
▁vhost	-12.7516
authorized	-12.7528
▁disaster	-12.7529
▁unison	-12.7534
swf	-12.7544
freak	-12.7559
▁runnin	-12.7563
request	-12.7566
▁latitude	-12.7566
▁misconfigured	-12.7566
▁subtitles	-12.7566
▁btrfs	-12.7567
▁mepis	-12.7568
▁maby	-12.7569
photo	-12.7603
▁midnight	-12.7604
▁unreal	-12.7607
▁conkyrc	-12.7608
▁breath	-12.7634
▁soemthing	-12.7642
▁distract	-12.7643
▁modprob	-12.7666
whose	-12.7676
firewall	-12.7679
object	-12.7679
▁borrow	-12.768
▁untrust	-12.768
▁verification	-12.768
▁glass	-12.7682
▁24-2	-12.769
▁debfoster	-12.7718
▁mkisofs	-12.7718
▁bullet	-12.7718
▁silence	-12.7718
▁evident	-12.7718
▁doubtful	-12.7742
gress	-12.7756
mirror	-12.7756
beryl	-12.7756
▁tomboy	-12.7756
▁grazi	-12.7757
▁association	-12.7794
history	-12.7794
blank	-12.7795
▁5-10	-12.7796
▁invent	-12.7812
▁alguien	-12.7833
▁timidity	-12.7833
▁portugu	-12.7833
activate	-12.7834
▁david	-12.7834
vpn	-12.7834
extract	-12.786
▁!.	-12.7869
▁pocket	-12.7871
▁semiconductor	-12.7871
▁guardd	-12.7871
▁tiger	-12.7874
▁modinfo	-12.7874
iden	-12.7896
▁indicat	-12.7901
▁fuzzy	-12.791
▁masquerade	-12.791
jpeg	-12.7911
▁posix	-12.7911
▁quickcam	-12.7912
▁metadata	-12.7913
▁dosbox	-12.7914
zilla	-12.7938
▁international	-12.7949
▁adblock	-12.795
mobile	-12.795
racer	-12.7973
inetd	-12.7982
available	-12.7987
▁silver	-12.7988
▁proccess	-12.7989
▁summer	-12.7989
extension	-12.7989
▁gtalk	-12.7991
sheep	-12.8007
administra	-12.8023
▁dimension	-12.8027
▁permiss	-12.8066
▁irritating	-12.8067
▁seemingly	-12.8067
▁pending	-12.8068
▁rockbox	-12.8069
virus	-12.8073
******	-12.8076
▁ubutu	-12.8102
▁compromised	-12.8106
▁devilspie	-12.8106
▁podcast	-12.8106
▁wysiwyg	-12.8106
▁cmos	-12.8106
▁fellow	-12.8107
yahoo	-12.8108
ubunu	-12.8127
▁francais	-12.8146
hoary	-12.8146
question	-12.8173
▁kqemu	-12.8186
▁similiar	-12.8186
▁dammit	-12.8186
▁epson	-12.8186
▁guidance	-12.8186
▁cryptsetup	-12.8186
▁procmail	-12.8187
▁bulk	-12.8187
alsamixer	-12.8188
▁mistype	-12.8188
buffer	-12.8189
jpkg	-12.8214
▁amplifier	-12.8226
▁deborphan	-12.8226
▁anacron	-12.8226
▁licence	-12.8226
▁dhcpoffer	-12.8226
▁geez	-12.8227
library	-12.8227
▁uhci	-12.823
blahblah	-12.8243
▁parla	-12.8249
▁ratio	-12.825
▁christmas	-12.8266
▁walkthrough	-12.8266
▁autocompletion	-12.8267
▁complaints	-12.8269
▁relation	-12.8287
written	-12.8305
policies	-12.8306
shield	-12.8306
818	-12.8308
▁principle	-12.8347
▁balance	-12.8347
▁terminolog	-12.8347
▁crank	-12.8347
▁countries	-12.8347
▁danke	-12.8351
ount	-12.8359
▁schema	-12.8361
scanner	-12.838
▁uncle	-12.838
▁symptom	-12.8382
▁activating	-12.8387
▁merci	-12.8388
▁720	-12.8389
▁drupal	-12.8428
▁shoutcast	-12.8428
▁inherit	-12.8428
▁htaccess	-12.8469
platform	-12.8472
▁maxtor	-12.8472
while	-12.8475
▁manufacture	-12.8481
▁varie	-12.8486
▁beggin	-12.8494
▁excel	-12.8499
▁agpgart	-12.851
▁arbitrary	-12.851
▁bastard	-12.851
▁comprehensive	-12.851
▁government	-12.851
▁pricechild	-12.851
▁unresolv	-12.8511
inglese	-12.8552
▁regret	-12.8552
▁bttv	-12.8552
▁resolvconf	-12.8553
▁gnupg	-12.8553
▁privilege	-12.8588
▁proxies	-12.8593
▁chuck	-12.8594
broken	-12.8596
normal	-12.8596
random	-12.8597
▁introduction	-12.8635
▁blob	-12.8635
▁posible	-12.8636
▁china	-12.8636
▁friggin	-12.8636
▁!!!!!!!!	-12.8636
▁corporate	-12.8677
qualified	-12.8677
▁spike	-12.8678
generate	-12.8713
▁offending	-12.8719
▁sysctl	-12.872
▁chatzill	-12.8753
▁equipment	-12.8761
▁paragraph	-12.8761
▁hfsplus	-12.8761
▁xvidcap	-12.8761
▁threat	-12.8762
▁orphan	-12.8762
xfce	-12.8766
▁swiftfox	-12.8803
▁spoof	-12.8803
▁ardour	-12.8803
▁western	-12.8803
2870	-12.8804
▁monday	-12.8804
through	-12.8807
queue	-12.8808
▁bruenig	-12.8846
▁seamless	-12.8846
▁vuo	-12.8846
▁untick	-12.8846
▁subscribe	-12.8846
amazed	-12.8868
▁azu	-12.8868
▁dhcpdiscover	-12.8888
▁disadvantage	-12.8888
▁releasing	-12.8888
▁10-5-386	-12.8888
▁savage	-12.8888
